/**
  ******************************************************************************
  * @file    ai4i_data_params.c
  * @author  AST Embedded Analytics Research Platform
  * @date    2025-03-22T18:54:27+0100
  * @brief   AI Tool Automatic Code Generator for Embedded NN computing
  ******************************************************************************
  * Copyright (c) 2025 STMicroelectronics.
  * All rights reserved.
  *
  * This software is licensed under terms that can be found in the LICENSE file
  * in the root directory of this software component.
  * If no LICENSE file comes with this software, it is provided AS-IS.
  ******************************************************************************
  */

#include "ai4i_data_params.h"


/**  Activations Section  ****************************************************/
ai_handle g_ai4i_activations_table[1 + 2] = {
  AI_HANDLE_PTR(AI_MAGIC_MARKER),
  AI_HANDLE_PTR(NULL),
  AI_HANDLE_PTR(AI_MAGIC_MARKER),
};




/**  Weights Section  ********************************************************/
AI_ALIGNED(32)
const ai_u64 s_ai4i_weights_array_u64[5635] = {
  0x3b247ebbbcdee084U, 0xbda52a22bd8bc7f5U, 0xb80574ee3eeaaf78U, 0x35ca7458b653aa72U,
  0x36af58a5366139b6U, 0xb788ace8b66f83b9U, 0xb795231eb6eaf8caU, 0x3d1ea16ab5ad42ecU,
  0xbb8b13c9bc6798b7U, 0x3d97f3dd3ccc00b1U, 0xb5e4430cb5a44a74U, 0x363a7726b68263acU,
  0xb88f7050b5a772ddU, 0xb7d5b951b62881daU, 0xb63f6f16b601e868U, 0x3714529c35843068U,
  0x36d698be37463598U, 0xbb56dbe136e36274U, 0x3ee99c4f3b6db179U, 0xbc9de0483f0012eaU,
  0x373d3f13376cd63cU, 0xb5aa5fc836a74658U, 0x3e234a4c3531c358U, 0xbe8a582abdd0e2c8U,
  0x3ddae281bc959959U, 0xb7d7988eb7b30fd2U, 0x35e3d1c435dafeacU, 0x361e29bab72a8deeU,
  0x36c66011b55ed0ccU, 0xb668a7e0b616be52U, 0xbbcb2ef63ccdd540U, 0x3e3e8af93e4e3818U,
  0xb77e35bebc4ef2aeU, 0xb6714979b6d9fe8aU, 0xb63d35d0b7a06fb9U, 0xb603830d3585b360U,
  0x362e4df5361b15e6U, 0xb7a97974b7218807U, 0xb74026d0b798f260U, 0xb6f5d48e3824486dU,
  0xb745d5893658d6dcU, 0x36138302b63ee370U, 0xb7334a7eb75ecf78U, 0x36846438b7eada42U,
  0x370cc98136485260U, 0xb777f55237d1c1a4U, 0x3757e529b7a168e1U, 0xbcac7870b7eea0b4U,
  0x3ed007883c0608a6U, 0x3a99898a3f01bb0eU, 0xb7cd2ca3b6a8f927U, 0xb71c4d3d3825d9f2U,
  0x3ebac320b6ed5fcbU, 0xbed08f3ebe7ebbe9U, 0xbc2257ecbd1af0f9U, 0x3c9cf32cbc2db28dU,
  0x3ea29f34bc3fa4b9U, 0xbcba76053ef8184fU, 0x3bbfa0803c85de09U, 0x3ef372303cd970c3U,
  0xbd80ede63df53f05U, 0xbc7aa799bd830c32U, 0xbce7612b3e16b2a6U, 0x3e3952aabcba9216U,
  0xbcda099abd75ec21U, 0x3774b2e5b74ca84fU, 0xb6d263bcb68274f4U, 0xb87f765eb667d540U,
  0xb725564a35d3f140U, 0xb709c809b71ed3a4U, 0xb43f9de8b618d612U, 0x36d53ecc36455527U,
  0x37119690b6bc1b88U, 0x374a73c03678eddaU, 0xb6bec6873714961dU, 0xb672cf38b6feca85U,
  0x36cc21dab6097df5U, 0xbd0f0aaeb4fd3f50U, 0x3c6fbb343c6d049cU, 0x3ece2f7f3cb87ed8U,
  0x37e747353620de44U, 0x3441b74035d9602aU, 0xbbb154c0b4392a20U, 0xbbcadf913c0ac290U,
  0x3ece877e3e805b5cU, 0x365beffeb64eb39aU, 0x3736fe9937985330U, 0x3644c9c33678c206U,
  0xb66758d03680b5fbU, 0x356b55ceb59b9c88U, 0x36990121b73197e5U, 0xb6e240fbb5dfde08U,
  0x370e5eb6b5edfacbU, 0x3556343c37425438U, 0x34fa45c0b5c2d46cU, 0xb76c4eeab604bc3aU,
  0x3449b5a037783bdaU, 0xb4986be0370dbf80U, 0x36cf497135da2984U, 0x3620a91cb7049ed2U,
  0xbe65c6b23eabb344U, 0xbd2a2aedbec80668U, 0x36417ab2bb5fec7aU, 0xb7a84f0236a46588U,
  0xb6125010b6916e2eU, 0x3d35ae59bb0da25cU, 0x3e0c63623e19be1bU, 0xb77a8c14bc2bf17cU,
  0x363a6d7236bc3cecU, 0x369dc19335e0c97cU, 0xbe7048ea3ebeebe5U, 0xbd29d3fbbef42c18U,
  0x3b420819bbb82791U, 0x3f001bfb3adb7490U, 0xbbc107133f0a7359U, 0xbded66283e244176U,
  0x3c6b5c9bbe2ca209U, 0x3e1ae2ddbb9dc6c0U, 0xbd0c6988bda3de65U, 0xbc1939803e197215U,
  0xb617bec4b4d4bfa3U, 0xb6a16d9ab58557a1U, 0xb4483c40364d7317U, 0x3627100137e4be8fU,
  0x37266e64b79810ceU, 0xb611b9143709fe9bU, 0x36605570b5c1e616U, 0xb6a595a937247330U,
  0xb698fecdb67a141cU, 0x36642444b6579458U, 0x36898b6eb6324f48U, 0xb61e65b8b72733d2U,
  0xb74e7726b62545b4U, 0x373b87d6b71c14c9U, 0xb477bb08b7b416f9U, 0xb66f2bda36ab577cU,
  0x368dc03c367bdf09U, 0xb6ebe17bb5580cecU, 0xb655d7ee373eacfeU, 0xb8c7de9fb70c69ffU,
  0x37035cb636a19f70U, 0xb6de5ea936d684b7U, 0xbdcafdacb6fd3a8aU, 0x3e1e540f3ba6197fU,
  0x3dfaa78dbda6a2b6U, 0xbca9fcc1bd28b58eU, 0xbd0369193ca7d073U, 0xb678d55cbbb5f799U,
  0xb795ac54371d001cU, 0x378bce41b6296605U, 0xb5eece2034b37850U, 0xb6a8576e3629c500U,
  0xb60f0df8b5b969f4U, 0x3680588cb66c5457U, 0xb776533db5bee3e2U, 0x36238ca635eaac84U,
  0xb71c491437ae3c9eU, 0x3c12f6ad358cb284U, 0x3dc7dee3bbac21e5U, 0xbda87ba53d89074cU,
  0xbd5f6660bd3f681eU, 0xbde78aad3e96bfc2U, 0x3ccd01c83e17ce2fU, 0x3e88fea7bce933e1U,
  0x3cbf02a63e75c055U, 0xb72802483731066dU, 0xb7c9bc9eb7c679dcU, 0xb7bff57eb74baca4U,
  0xb6a0fa2eb60b5598U, 0x36ecffb7b7103638U, 0x3ca529c0bc5e8300U, 0x3cb12fe43cb50107U,
  0x364a31dc3d9aaa68U, 0x348d1400336637d0U, 0x3bfc61cc3cd147a3U, 0x3651492636654748U,
  0xb65b2e2eb70a9e51U, 0x35ae8ad63558f820U, 0xb6d5b01935eaa544U, 0xb69bd61eb59a5a5dU,
  0x3caceafcbd19faf2U, 0x3ea05da93df02e01U, 0xbd3914b93dda2e22U, 0x3dafdb24bdc4d074U,
  0xbc785d6e3c7a91c4U, 0x35712891360ef6deU, 0xb68f0ef535d7333eU, 0xb5c8056eb4a921e8U,
  0xb5859cab353328acU, 0xb7192256b5929be8U, 0x3c2b401fbbeb19ebU, 0x3cc5b25ebb2c723bU,
  0xbd05b1173dee1515U, 0x3e2298cc3bf75bb7U, 0x3dd6e4353e91d0a3U, 0x368da2be359d0b00U,
  0x360dc80c3605f0f2U, 0x3801806836d60b34U, 0xb6410da936ab049eU, 0x374c8a4837509821U,
  0xbbd609223cfed386U, 0x3c8b1476bc00205eU, 0x3d1afbbbbd791eedU, 0x3e6b5bbc3c1ca195U,
  0xbbd7389cbda81b86U, 0xb66aa5163640e1bdU, 0x37961e03b73db8a6U, 0x361b9fe8b5a01260U,
  0x35b14190361fa3bcU, 0x3509db833515ed40U, 0xb5bdbc4635192212U, 0x36582f08b683ee66U,
  0xb61798c8b43d85f0U, 0x369ad1b1b620ab8cU, 0x376ab8d036057972U, 0xbe1137f93e51637dU,
  0x3c9bfdb0be4232c5U, 0xb6fbcc02bc468fc0U, 0x37172a80b59ec7e0U, 0xb5fc66e1b60e1b58U,
  0x37cca29736a76c10U, 0xb6f1adb2382e9093U, 0x36e7e436b79c9490U, 0xb4061280b5d98288U,
  0x371e83d836db48f0U, 0xbd0681d83d8cb430U, 0x3dd79816bde9f731U, 0x3571dac03d656e41U,
  0xb7a67dd8b781777aU, 0xb45f7580b5dae9a4U, 0xb6a64484b6c5fd4aU, 0x36e50674347be3b8U,
  0x3d840258b62c6df1U, 0xbdbc02b0bd5f7de8U, 0x3c8a89113e437050U, 0x3569f15ab49072b8U,
  0xb60dbe8cb594628cU, 0xbcbd63fdb6f24607U, 0x3a4585753c648b44U, 0x3ee44e863b9f20deU,
  0x37161fb8b70161f7U, 0xb77d5eca36c5050eU, 0xb6923ed7b7345d6aU, 0xb61a1a87366589c4U,
  0xb57bbebcb68cfc07U, 0x34ca7106b6f33e94U, 0xb62f2ec4b4158110U, 0x3b0afae4b68e8acdU,
  0x3e95f69abd4c1f7aU, 0x3c5f5677be1ae795U, 0xb6badbb8326d9bc0U, 0x35ec3fc5b6bb93ceU,
  0xb711f8e2364b3b4cU, 0x3636d65036b5fa05U, 0xb5a6455cb69c7354U, 0xb768b167b72e7287U,
  0x3691667f3729438aU, 0x3ebcbbdeb59b47d0U, 0xbee5ab5dbe66f630U, 0xbc07996cbcef42adU,
  0x3c0e5817bc8a3da6U, 0x3eb9023a3c19f02bU, 0xbc659fd73f08c11bU, 0x3d12c539bc6f08e9U,
  0x3e015ad4bc2aa4d4U, 0xbc1910273c2eb6a1U, 0x3dbcb57fbd53b21dU, 0xb78cad02bd310a45U,
  0x379430f436b9b668U, 0x37c7015eb7126c8eU, 0x3c50aca0bd45ef14U, 0x3db48b003cc3e8e6U,
  0x36b0d1b63e07b423U, 0xb762f356b66d284bU, 0x3650877d379bba91U, 0x36306340b6a1184aU,
  0x35d2faf036403bb5U, 0xb7ae078737f42b31U, 0xb6d6dbb6b49f2ba0U, 0xb6908f9a36dc00c8U,
  0xb77ca2a4b71145d5U, 0xb4a004a0b79a1ef2U, 0x3e13ff7eb791c606U, 0xbe251544bdc2601bU,
  0xba0418b23b4e1c2dU, 0xbd34f608bc11a11bU, 0xbe358cb9bd00be06U, 0xb68cfd0c3ecebec6U,
  0x34e925703553a7cbU, 0xb687ea1233b85a90U, 0xb5048d3435c947beU, 0xb7dd90c6360d6177U,
  0x35cdf91e354da4c0U, 0xb604f79ab7b0607eU, 0xb74ed836b6d5cb13U, 0xbb93d418bb1be104U,
  0xbe7002c8be30e3d3U, 0xba82c0da3eefa617U, 0xb78af1323737c7adU, 0x3788c5903775b638U,
  0xb72045e8b74d1b10U, 0x367b31c0b666fed8U, 0x370796c2383e1e3cU, 0x376eba1f362e6700U,
  0x3651f04636fce3e5U, 0x370591dab6e59cb3U, 0x37141c5036da3a9eU, 0x3c2e3c3637100482U,
  0x3aa65a543a8b30c1U, 0x3c7ff8e43c6ad379U, 0xb55483d0b6c34296U, 0x36fcce3a3656ddd6U,
  0xb74b785cb4858d6aU, 0x373f12bc379216b8U, 0xb63d9a90b7ee9013U, 0x3c2d6784bcb200c2U,
  0x3e5a1bce3d69c321U, 0x36dc30703e43ad6cU, 0xb7416de036dedef0U, 0xb647f31fb83b1fb6U,
  0xbf282172bedf52eaU, 0x3ef608b03eb44ffcU, 0xbe5768eabf97991eU, 0xbece2e5bbf303d5eU,
  0xbc7bde983f522442U, 0xbf830a443ecee86dU, 0xbedc47963f153271U, 0x3eccfa77bf2e52b1U,
  0xbef603cfbf61b40bU, 0xbedd415e3eaea3d5U, 0xbec76a68bf454751U, 0xbeb99e97bf3fb1a6U,
  0xbf009a703e896f90U, 0xbf170ea6bf60550bU, 0xbe80a415bfd86846U, 0xbe9d24a1bf09cff5U,
  0xbf1993e4bf81aeddU, 0xbf98d3d2bf46aba3U, 0xbf812b01beb335cfU, 0xbf6e389bbf120eb7U,
  0xbe8d5234beb8faf7U, 0x3f04122bbf09008aU, 0xbed700a3beddbfd1U, 0xbdac4748be263f36U,
  0xbf6a2535bf889ecfU, 0x3f116318bf30683fU, 0xbf0fb001bfa43a31U, 0x3ef4b2e0bfa09d38U,
  0xbed3ffb9be84c975U, 0xbfa384173dd558cdU, 0xbf5bf18dbf95ba94U, 0x3f084026be91993fU,
  0x3f6bd34fbf1ef9b9U, 0xbf254d453f6b122dU, 0xbec2e2b9bef81784U, 0xbf2ab270bef6f87cU,
  0xbf5982d7be2a3f4cU, 0xbf9e668fbf791e04U, 0xbe0234443f29e883U, 0x3ef98be2bf82c5d7U,
  0xbf3761b23e65af0aU, 0xbed1acb5bdc36561U, 0xbe9ca07fbfa17f36U, 0xbf6d3bbcbe35fe31U,
  0xbeb1e92abf0fcf33U, 0x3e6a5ad43db35b7dU, 0xbd8f6319bf0f5f67U, 0xbeb1f6b2bfb89c67U,
  0x3ee8d5dbbf6167b2U, 0xbf453c25bfbeee9aU, 0xbf377089bf5c8a51U, 0xbedecf60bf7f348cU,
  0x3f5a62b6bf50c359U, 0x3f457a6fbe00ccf5U, 0xbf006876bf7e63c4U, 0xbea803d9bf0d3d27U,
  0xbe1b589bbe1eefb3U, 0xbf737ec0bf0b69afU, 0xbf331fdbbf5fad4eU, 0x3f69f768befd430bU,
  0xbe061100bf08af9fU, 0x3e3dddf8bf0eebc2U, 0x3f00a487beec78f7U, 0x3f04a200be9646d8U,
  0x38f1e01cbec21772U, 0xbd4b39f2b78e5911U, 0xb9a49f93bb075dbfU, 0xbfa3deba398f4685U,
  0xbe382507b8befd18U, 0x3d3e319038ff764bU, 0xb893b562bebaabd7U, 0xb66694ff3a682ff5U,
  0xb89b7f90b9f37ce3U, 0xbfd1474e35162bd6U, 0x3f5aa1f039455fc4U, 0xbe8c6185c03733dcU,
  0xbf90279a3e25ac32U, 0xb9621dba3980c4c4U, 0xba0f7176b9920c27U, 0xbeea9102b9958786U,
  0xbfe2c2be398132b6U, 0x3b52097a39bd36b9U, 0xb9c8c572b818c811U, 0xba5950b9b93866dbU,
  0x38af3b0f3f2329b8U, 0xb6af2a143d1ff916U, 0xbf7960293d9bd7d7U, 0x3ca1a99d3d899c81U,
  0x38f97252bbbc8558U, 0x3758ce7fb914eca5U, 0xb95520753c0e982aU, 0x37b064b23b973d70U,
  0xbf3b1043b84d3552U, 0x3ba629babcbcc713U, 0xbaa277c13883413fU, 0xbd876b2e393a00b3U,
  0xbf07538dbf1c7e65U, 0xb7a57cda386053eeU, 0xb913f6743a7fca23U, 0x3a0ca958b8864a61U,
  0xbe670c43be6ad50cU, 0x3b20cc0fba60d173U, 0xbeef744b3b136fd7U, 0xb7503ef03c566cabU,
  0xbf2de3283bcec076U, 0xbab4b01d37fe6fe7U, 0xb93aa363bb5df34cU, 0x3b3dda363e2c7abfU,
  0xb89fe8e23afb9bdcU, 0xb893a785bc9260d7U, 0xbe22ff693bb33b0dU, 0xbf210e9138f11c56U,
  0xb712be623b096911U, 0xbee441c63a2c293eU, 0xbabea10638bdcfa3U, 0xbe29e50b3bcb2782U,
  0xbde33c67c039b448U, 0xb881e1293c308459U, 0x39f684ce3bb7886bU, 0xb87e5a1b3a0d6050U,
  0x3d828694b72b60ebU, 0x3b02f49c3d575684U, 0x3b1fc9083b22fe5dU, 0x390049d3be18bdb4U,
  0x395da6a6ba3cf3d8U, 0x388cb3c938436a9eU, 0xb78ad9f136140defU, 0x34c90dc8bf6f1e54U,
  0xb99e64d5bf8642ebU, 0xbce0133fb9595287U, 0xb8f548c5ba50c99dU, 0xbf762d9b3a929479U,
  0xbee9249e37a97df8U, 0xbdab20c8b92551e0U, 0x37aa1005be815958U, 0xb59f09fc3992b069U,
  0xb9c63c7eb559af42U, 0xbf2cd5b0b8d33699U, 0xbe4b037038b11085U, 0xbefde95bbfb70f16U,
  0xbf204faebd047803U, 0xb8a08bf43a3b9556U, 0xb9f507b4bc025ea2U, 0xbf3ccb1ab6593221U,
  0xbeea53393a44e91fU, 0xbcc4e404b9577df9U, 0x398874cd3908f19dU, 0xbb32d8b339e7735fU,
  0xb88f534f3e851b13U, 0x355c94f73a8150e9U, 0xbf5d01f5be5d7c9eU, 0xbed7e66c3d368309U,
  0x39518376bbb62711U, 0xb7391f8c392d42c3U, 0xb9372876bb8a74d5U, 0x37b422bc3bf97c6dU,
  0xbf084ebab995bea5U, 0xb9ce3fa13d42558bU, 0x3adb0c143853c31aU, 0x3d67b0da398586faU,
  0xbeaccb2cbdc86752U, 0x3853745a38513614U, 0xb8307d4dbc24840cU, 0x3c0c6d6cb907b8e1U,
  0x3ce445bdbec2c9efU, 0x3cd51e9538478dfdU, 0xbe51253bbdb53fe9U, 0xb691ff7d3c241dfcU,
  0xbf3f8598bc73ff88U, 0x3a8923a9b6f3f2dfU, 0x37bdc592babb0ab4U, 0x3b923dd6bf22ea5fU,
  0x382622913ac2a433U, 0xb78f72e9be888fd8U, 0xbe9a83a2bb8de1e2U, 0xbf9f9fbbba934c55U,
  0x36947cc3bb7be0bcU, 0xbcc7dd103abafaf9U, 0xbb0459e83b17b0f6U, 0x3d548d0f39d996cdU,
  0xbd9769dcbff20328U, 0x385f9d07be244fefU, 0xb9879107bdd9b8e2U, 0x38fe0e52ba513f3bU,
  0xbe2b9fd2b7c65bd5U, 0xbb6e0067befb9552U, 0x3a4ab890ba336665U, 0xb9fa55aebf6011c9U,
  0x39752d3b3a4edfd9U, 0xbc27581938da5fa9U, 0x3852edf6b80e4eb4U, 0x38891f98bf6d4da7U,
  0xba0217a23ed1a4d5U, 0x3dd2f4b1387b72d4U, 0xb95cefccbb401f28U, 0xbfb5b5aaba23ed85U,
  0x3eb15ae839cff685U, 0x3cbddab3b74d32d6U, 0x39a2c9403d3ae52fU, 0x37e008f63a5f1ecaU,
  0x3996133fba3e47cdU, 0xbf39a81bb891c84aU, 0xbbd9f743386d56e6U, 0x3e77545640075115U,
  0x3c75546b3d4b4f8dU, 0x3a904b113a29a3a5U, 0xb9a1bd783ba990baU, 0x3ef3792eb9c8756fU,
  0x3fd9e098ba9d8279U, 0x3c950bda3ad9ef98U, 0x3a188af7397dbdc8U, 0x3a110f6b3a434516U,
  0xb89a7779bebc53e4U, 0xb84800c63cdc3e87U, 0xbf184832be22e91bU, 0xbccfb99fbcf970daU,
  0xb96396e13b9f8049U, 0xb76d564239baf7fcU, 0xb9ccf4563a7ab46eU, 0x386be3af3bcde1dcU,
  0xbc368708380d1a07U, 0xbb5eb8353c2b7c25U, 0x37b092d3bad193baU, 0xbdd5f94038b074e8U,
  0x3ee1da533da23281U, 0x396d4cc2390dcf7cU, 0x3a097c833bdd948dU, 0xbaaa0a5f399b68a6U,
  0xbcab16273e4b4f73U, 0xbab0ad3738cda286U, 0x3f2329cb3dbcc2dbU, 0xb691075fbbda67c3U,
  0xbce9a35dbc3b635aU, 0x3b624501b74aa6deU, 0x3952b80dbc804c79U, 0x3a53bf50be5d8cd2U,
  0xb9d3c9003a8a2f74U, 0xb9d3576b3e4ef3cfU, 0x3e52dcf0ba7c4258U, 0x3d40dc6dba077489U,
  0x36ebc047bac6917eU, 0xbbea64bd3b3937aeU, 0x3b100c09b9bb601fU, 0xbe508ed2ba9c1888U,
  0x3d09a67c40102c51U, 0xb87937b7bd23328bU, 0x382bf0be3e92b39aU, 0x38c7ca1b3b045e3bU,
  0x3c34a1e13792833dU, 0xb9d9dbdbbefbe9f8U, 0xbb63c0fe3a2da520U, 0x34605accbebaaffeU,
  0xb90e5d5ab97a6ba6U, 0x39a6f62339a4fbccU, 0x3803e5cfb7a9b52dU, 0x38a19c6e3f4244b1U,
  0x3933265bb985e5d3U, 0xb8c23d80b8c5b033U, 0xb8be40dab9a4d4b1U, 0x3fbb6d37393972aaU,
  0xb8b634fdb75bfe00U, 0x38a29ac6370f5cffU, 0x381dce35bab122dcU, 0xb62d07ffb7e606f7U,
  0x38b6ef32b936507bU, 0x3ff9b03cb6b61896U, 0xbe343571b90ec336U, 0xbc58d21fbccf4f76U,
  0xbdaa66adb9b3213eU, 0x389500feb97bc770U, 0x39395b20b88042bcU, 0xb9a232653791855fU,
  0xbf317bbab6bdf884U, 0xb9ed49d43a9bce94U, 0x394f27f8b7a86adfU, 0xba077ed1374af434U,
  0xb90bab8cbeb248d6U, 0xb61dfc03b835c766U, 0x3c597881bf20b85aU, 0x3e1fd664ba08459aU,
  0xb88c7a693aa1bc21U, 0x376445133a446395U, 0xb795199e39037ac1U, 0x3785e891395b08f6U,
  0x3a9d1e903688c858U, 0x39da64fab78751fdU, 0x3988cc71b886b440U, 0xb86af64b38e2c1ffU,
  0x390a49b03aaddd4dU, 0x393c9477b8dd0becU, 0x38b1535b37024500U, 0xb9747aaa375040b8U,
  0xb746eb773afac5f0U, 0xb9ce154db9198cffU, 0xbcbb0ab63835b263U, 0x37427415ba034eeeU,
  0x3887f2583955848fU, 0x39445b90b6505483U, 0xb92a9aa73a0dce66U, 0xb9988cfeb91d21a0U,
  0xb8043abdb7f4408eU, 0xb5a6bc1bb8d53d82U, 0xba075b65393003beU, 0xbcf7c902398513b4U,
  0xb76e974ab9fdc24eU, 0xbcfe91093895c412U, 0xb5c5e82aba3ee375U, 0xba3da3f43a8a6e32U,
  0x38979ec0bfa524baU, 0xb6cbdba03a4695dbU, 0xb84c521639c0c37dU, 0x3803c0a6397e59faU,
  0x3846ce2a37db4298U, 0xb8d87065b9c07e38U, 0xb95a8a203835f068U, 0xb72eb66f394581f7U,
  0xb96c64d2b9ba3deeU, 0x3843be0439dbd664U, 0xb822b6fa3748d137U, 0x3857b13dbb2b1751U,
  0x38c74fef3d056a52U, 0xbcd9e77c391f1b2bU, 0x3986c1f3ba1853e7U, 0x3fea3ee039fd5826U,
  0xbe23354b37d477b4U, 0x3d9590f0b781659dU, 0xb986d7253ec073d9U, 0x369de1d23a53164fU,
  0x398bdec73921c09aU, 0x401c385d38625bdfU, 0xbf8f0ca039135e2cU, 0xbec84737befa8f6eU,
  0x3ea3f190bebf06a8U, 0x385592013a8b0112U, 0x3a641a64bd12b5a7U, 0xbf503a74b966666dU,
  0xbf15eff73ab7e6f4U, 0xbaec130734f9c539U, 0xb85dec51b90aa0daU, 0x3a78e0aeb90ae3e6U,
  0x392a8f52be6e5a5aU, 0xb634c8843a9fe590U, 0x3f942b79be24c2d3U, 0x3cf5afe73d94fe8eU,
  0x3a0e03a73b99b1b7U, 0x3788b2a93828ec7dU, 0x36b4cb953c284f45U, 0xb873f7953b8fb6c5U,
  0x3e6583373a972e10U, 0xbc0c28453e049da0U, 0xb9b5bb5a39808e20U, 0x3ea3f4643a3c5785U,
  0x3f3af2bb3f6529a0U, 0xb930da3e37cae046U, 0xb78a4c7c3bda741bU, 0x3a5aaf79b819a076U,
  0x3c5d31843f2ca491U, 0xbc312dcdb85cd378U, 0x3edbe241bde3849fU, 0x37010b9d3c3189c1U,
  0x3f3cc372bc5f5ff4U, 0xb8caa764b8608a58U, 0x38249db83a4edbd3U, 0x3b0abd733e03e71aU,
  0xb941db3f3a039801U, 0x376eeea4bd40dfb0U, 0x3e8a91563baf737eU, 0xbe835ed7b7904b2dU,
  0x378cc359bafc9675U, 0xbf2b0960ba62ba57U, 0xba468bbf3b8892cbU, 0xbf0b5449ba00e170U,
  0x3cd7dd88bf967e9dU, 0xb6ee7ca73ed6e664U, 0xb91c2b2b3dac3c1bU, 0xb8d420fe3b34b6f5U,
  0x3c2424e2360cff2fU, 0x39aba6efbed4eccfU, 0xb9af9571ba1aa7e3U, 0x398040c23d716423U,
  0xb8ebfc2cb9d93ba4U, 0x3a729934b8d1f221U, 0xb709e9cfb60b7bb3U, 0x38a1bf71be2cb038U,
  0xb8f68ed0be6fd2a4U, 0x3c749124b95b8506U, 0x39a8376bba180dcfU, 0xbf0ed19a39519c58U,
  0x3ec8273ab8b118a6U, 0xbd31a8dd391bd108U, 0x3a3c663d3dc059d1U, 0x349443613b13be71U,
  0xb6fc0696ba4e2af2U, 0xbef5270437f752c8U, 0x4009dd6d390c0779U, 0x3b36c3673f456ed9U,
  0xba5eba3b3bbebda6U, 0xb7886a813a3df1b5U, 0xbb5aa830bd67b2e6U, 0x3d90f1873916e607U,
  0xbf08c195b9891fe3U, 0x3b8d2472388a17a5U, 0x39433300399b4bc5U, 0xba5936e7b92724baU,
  0x3827cf523f9f16cfU, 0x37a0b5c0bd6e3f9fU, 0xbf7473713fcce5d0U, 0x3f3cb4ca3e8e81f1U,
  0xba87bc353b94ae1fU, 0xb70e8439b8aff8dfU, 0x369507eb3cd2a3c4U, 0xb9d5002a3c5fd3d7U,
  0xbc341b06384058f3U, 0xbc117a8cbdbeae05U, 0x387cdb9638240ffeU, 0x3da9376fba36f923U,
  0xbd5f703cbe484b77U, 0x38b5f6a638919017U, 0xba8e702abc2fb212U, 0xbc28f559b9caa579U,
  0xbc0c888abed95763U, 0xbcba87143a9de1bdU, 0xbf06864f3c2acd11U, 0x37efa8583d231ceaU,
  0xbd28b5813d8c0c5fU, 0xbbb8e13b39193156U, 0x37b581163c4c435bU, 0xbc071d703f79c417U,
  0xb8c127c7bb1bdedeU, 0x39803d563dab367eU, 0x3ec261afbd81b157U, 0x3d348f5bbb1cf7d3U,
  0xb690a856bbd06b02U, 0x3db0443538a267c7U, 0xb892b82c3a8abfc4U, 0x3f30d13e3a6cabd2U,
  0xbd3ef2d83edcb7d8U, 0xb75e566cbd5a5874U, 0x393b8337be0051d8U, 0x3907643fbb33a9dfU,
  0x3eb355b43836ce59U, 0x3b5316163d6bc5cbU, 0x3b9213c3bba92909U, 0xb96355b1be8bcbc8U,
  0xb8348fd139b0e1e3U, 0x3b06b7803900eb93U, 0xb718b24ab76a0b51U, 0xb8bfa219be4e818eU,
  0xba184782bec39e06U, 0xbd6c142fb9a15087U, 0x3a8441a63b2ad70cU, 0x400833d33a108e11U,
  0xbefcae9639bdcf75U, 0xbca16e42b6e606cbU, 0x3a1b4ad23f5a1396U, 0x376926e9b97825a9U,
  0xb9bde73eba2a65f6U, 0x4056671eb79d38b1U, 0xbddcbef6b8f18c66U, 0xbf6e1cd2be4aeb07U,
  0x3f991e57be3dc5e2U, 0x3a13cde4ba48a2c2U, 0x3a384140bcfd31b0U, 0xbe0970c73a184514U,
  0xbf985a7c3ab0c90eU, 0x3c205cd4b9ea37c3U, 0x38d193bbba3d356cU, 0x3a15bb7e3b03c082U,
  0xba1fcd01bf0db1beU, 0x372de1a5bc155df9U, 0x3fdfdd0dbfa20c18U, 0x3e4b5c0e3da1c4c1U,
  0x39a8542dbca68f27U, 0x370047dab9dd8dfeU, 0xb90a9fc13b8bc8f2U, 0x37ddf8643c1a7119U,
  0x3ee990a9b9baa2f0U, 0xbb93d7573d0cc1a0U, 0xbab7eb89ba387031U, 0x3ddd4a2cb8e40693U,
  0x3f0f3b0f3e57853bU, 0x38c309953994f612U, 0x3b12a5853ac57d14U, 0x3abf88e93a946ee4U,
  0x3f6c93123f651a0fU, 0xbc8f7110ba20c308U, 0x3f304279bd7d2945U, 0xb7a541dbbd5ace94U,
  0x3e091c9b3c33a9c6U, 0x39accfdd38d71963U, 0x39405900bb9fdbbfU, 0x3b0daadabe38e1bbU,
  0xba506aa0bb81f297U, 0x37f9ef1fbe18eeb3U, 0x3f30e936bd14407fU, 0xbf95bdffba67edcbU,
  0x34d54493bb10fd89U, 0xbe1e0359ba5eb7ffU, 0x3a8727cc3b985b70U, 0xbfb8bb693ba56655U,
  0x3bcac786bf19f024U, 0x3883afb93e091772U, 0xba00ddeabe35586cU, 0x39212e0dbbc16264U,
  0xbce3bffd3772a96fU, 0xbb163a473ec2f9fcU, 0xbb8fb061b9d51668U, 0xb9927b82bf849e7bU,
  0xb91e30913a85df2cU, 0x398e9fc73a8d2b5aU, 0x370afd7eb83845fbU, 0x37e7d3f53e8512a9U,
  0x3a0bd447beff5fc2U, 0xbd8abfc8b97797b7U, 0xb8d6c0393abf182bU, 0xc006d3ffb91a1aabU,
  0xbee01aeab6a19672U, 0x3ded55e737bd19bbU, 0xb9637ceebe5775baU, 0x3737cb4db9f891fbU,
  0x3825474c3a7e434fU, 0xc0129b33b7d3ca84U, 0xbeb3b54e39889be3U, 0xbeeb5a33be8f36a7U,
  0xbf8aaa94be4fa757U, 0x3876d32439431a63U, 0xba3620113b57770aU, 0xbe9839c4b99d7a59U,
  0x3ea7031339217ffdU, 0xbc48216539ed01c0U, 0xb90f7c86393190fcU, 0xba968bc3b37ad937U,
  0xb991a42dbfa473a9U, 0x379af9243dc39ef7U, 0xc06b792dbed6e859U, 0xbf165c73bf2127d2U,
  0xb8ed0a713c281d4bU, 0xb85d8ab738d5b8a5U, 0x379743a1bbeeb597U, 0x398a610539407fa2U,
  0xc001408aba0fdba9U, 0x3c1be4373d9076c2U, 0xba838dbb3a037720U, 0x3d416c8db94c2d5eU,
  0x3c2d6031bf43c231U, 0x3968d4bab94b5270U, 0xbd1ab3c7bb962c73U, 0xb8516449385acc51U,
  0xbd68f1c0bde627b1U, 0x3c0f0d15bbff5870U, 0xbf16395c3d073f97U, 0xb6cacf6b3c7eb244U,
  0xbf20fcd7bd21c862U, 0x3a20e137b799a6d2U, 0x385b92fe3be689fdU, 0x3b88210ebf89f453U,
  0x3a828e9a38dd76f9U, 0xb8fb52ecbe6eae06U, 0xbd724bf6bccbf452U, 0xbdd45a42bbc6a54aU,
  0x3715c326bbec8171U, 0xbe90163e3b6845d6U, 0xbc2bc0ffbb756201U, 0xbf6120b9bb0a7b70U,
  0x3c1739bb3f958361U, 0x388e9d82be421e22U, 0xb871c2853f1c5027U, 0x39c06147ba3cbfedU,
  0xbf0fe165379b31cfU, 0x3aac3e92bf3eb5a1U, 0xbaf2b95bb93e021fU, 0x38fdbd4cbfba5e32U,
  0xb8b796bbba6ec94cU, 0xbd0cb2473904cd69U, 0xb7b301013467ee4bU, 0x37f77e183ea6650eU,
  0xba0849bebe8ecb43U, 0xbd19ca2b388fae5aU, 0x3964e482bb2bfb24U, 0x3fe96720ba060566U,
  0xbebb935d395ee64cU, 0xbd65832d3803680dU, 0x391a23f53e9db2f3U, 0x374e859bb94e4d6aU,
  0xb854a4a63a1c4ff6U, 0x403c1aa4374c7f74U, 0xbf13013f38cb24ebU, 0xbed2b2b6beee9165U,
  0xbe7670323d3e0887U, 0xb92de9b6ba0f1434U, 0x3a337dd3bd39340aU, 0xbeba84ebb9b85df3U,
  0xbf65bcee3a84bfa8U, 0xbc16fca9ba138c86U, 0xb98d9ca2b9b0ff82U, 0x3a7eeab9b92fbd9fU,
  0x38f49723bf4b8652U, 0xb59f7d933e328a1fU, 0x3fd5fcc2bf45c740U, 0x3f0143f7be8c3fd6U,
  0x39a311b0bce66912U, 0x37b6f75038acc61dU, 0x395683ddbc38d8a7U, 0x37bc38453ba287d9U,
  0x3ca99b063a279a3cU, 0xbc045af3bcf3b456U, 0x3a27730cb992e0c1U, 0x3e948d1f3a40333eU,
  0x3f19ab7fbefa73abU, 0x38629f353995ee3dU, 0xba401b50bc43e110U, 0xba694eb83a85aab4U,
  0x3af1802a3f3ae47cU, 0x3b1d26953b4d3e59U, 0x3f4239f3bca2f149U, 0x3780193ebd172bd1U,
  0x3fcb0c713c975ee7U, 0xbc6b8b7db706fb05U, 0x381c23fc3d046660U, 0x3b818d95bb990fb4U,
  0xb8f487d1ba8d5985U, 0xb774dcf0bc88f540U, 0x3e543832bdae8935U, 0xbf4e24433a6feaf2U,
  0x37534df4bb412a87U, 0x3eccca44bab3a8beU, 0xba558ef43aabb3f2U, 0xbddabe38b81f7e5fU,
  0xbe127b5fbfaed166U, 0x387084a33ee49cdeU, 0xb7189228bda331c5U, 0xba58fd00bc7a2063U,
  0xbe2c8953370b10b6U, 0xbc1ec694bf43e872U, 0x394a0155baa19393U, 0xba76a183bba96d54U,
  0x3915d513bac08585U, 0x3bb95518b7e58781U, 0xb72654be36fdeb95U, 0xb8b7e98b3ec82dd5U,
  0xb988af833f5a0f73U, 0x3ddc121cb7c5eb1aU, 0xba1173b3bb219ec9U, 0xbf1d0d593ab6fe53U,
  0x3f1bf340ba223023U, 0x3def9be237fb7ad2U, 0x39a45a83be9d3165U, 0x373b43e83b9b53fcU,
  0x36dd782239dcf93dU, 0x3e152989b8b2ea36U, 0xbe2874bdbaad3deaU, 0x3f07ab0dc00e2108U,
  0xbeade7fc3d41aac2U, 0xb9dc8875b9e5a86cU, 0xbb446e0f3e0cae4aU, 0x3f5bdde7b95bc73dU,
  0xbfb44c7b3acac97aU, 0x3db37705b9e6bc45U, 0xb6db541239c37555U, 0x3a5e31b43c274ea5U,
  0xb93068c23eafb2c8U, 0x37917839bc292963U, 0xbed09d4ebf2ecb18U, 0xbee0d6623b8157bcU,
  0x3a5790113c806c81U, 0x358b76053a889600U, 0x3623d585bce32805U, 0x3a19d53139040ec9U,
  0x3e7f5588392ad53dU, 0x3ae68a5c3d302599U, 0x3a9228a4b8dc09b2U, 0xbe5663d6bb003512U,
  0xbf0d11c03e80c332U, 0xb88d33ccb9c4d389U, 0x3900bc7ebcd21e17U, 0xbc5535b5bb86993cU,
  0xbeece6cfbeded53fU, 0x3d8940f0bb47e4f5U, 0xbf47bb3f3d3f4d30U, 0xb71b38b73e5aad8bU,
  0xbcb99852be0b53d9U, 0x3c2253c637d8285cU, 0x3938d09c3cb96966U, 0xbc105269bd1a883fU,
  0x38c855963bf4b19fU, 0xb79db59b3d01deafU, 0xbeb6a72d3c3df54cU, 0x3f3837ebbbd1faa9U,
  0xb855f8253c99440cU, 0xbdfa6aae3cd2ea60U, 0xbb3305fcbc92b58dU, 0xbf652c6d3af97567U,
  0x3d8cb24bbfd1d975U, 0x39ada726bc80f1c9U, 0x3a725c9d3ed60a8eU, 0xb9e65b73bcac6f2cU,
  0x3d92fa183680c23fU, 0x3bbc7c463f8095aaU, 0x3a9ddf52bbb2b9acU, 0x3a0e1daf3f8f636cU,
  0xb87ebbf8ba72d8b6U, 0x38c3434fb9c94ed7U, 0xb8b9a8a2b73614f0U, 0xb6ee7072bf49be9fU,
  0x39e45c7a3d0c311eU, 0x3c3f8ae63a459fc2U, 0x3845a73738f76de1U, 0xbf1441f0393b92daU,
  0x3f032f88b8a8e6aeU, 0xbe12d1e6381f4544U, 0xb984b212bd49d54fU, 0xb55ad1b3bb4bc997U,
  0xb94659c239eb91cdU, 0xbf5d5e9ab92277ceU, 0x3f936a1f398c5518U, 0x3cf41297bed31c2dU,
  0xbb92bba03e42e758U, 0x39f13b8c3a15962fU, 0xbaaaddd4b9f3af05U, 0x3e52ef813a15db8bU,
  0x3cdec458bb6d8f67U, 0xbc291d3db94c3bafU, 0x392e329bb9be8f57U, 0xbae555adbb5ad88aU,
  0xb9e4a3473e774d90U, 0xb80d543d3c4d8b2dU, 0xbf12e4e63fddca8bU, 0x3f357f483f33c1eeU,
  0xb8dd80fe3c3b5b14U, 0x38dab71eb909bcb6U, 0xb5c2d8793d8b9271U, 0xb9b58f2f3cb39c45U,
  0xbc4aa2db38dc7a7cU, 0xbb2597c7bd077bd4U, 0xbaf9b92339015611U, 0x3d5ca7673a90a5fdU,
  0xbeaa18ca3c430114U, 0xb68eea69b899f99bU, 0xbbb2dfc23b949ed1U, 0x399ae8dd3971cd62U,
  0xbcc50b1bbf286cf1U, 0xbc01f5a43a829a87U, 0xbe850b6a3d8afd5bU, 0xb8105b4a3db8073eU,
  0x3cd57a713e11ee3aU, 0x37886e3d390f7170U, 0xb88112eb3b8526c8U, 0x3abc292f3f9ddd4fU,
  0x3a0afb453b1f3cb0U, 0x390a8f223d333d67U, 0x3e36174bbc6b7c67U, 0x3d5a1a6dba2c727dU,
  0xb844f00abc234710U, 0xbb629e6d3b4966eeU, 0xbb86ebe63ba0adcbU, 0x3f15807b3be2107cU,
  0x3d952025bd22ef2aU, 0xb93edf52bc575b52U, 0x39bcad62bb4924c0U, 0xba00f949bb675125U,
  0x3f6a62a7b7b2aeeeU, 0xba812bb2bf143185U, 0xba5a670138dcd86cU, 0x3acd0617bf01e2bdU,
  0xb859662eba105f39U, 0x3b9628523ae3d843U, 0xb80e8a5ab6fb1375U, 0xb6c0b921bf0ed4e0U,
  0x39b4ed44bd0a0596U, 0xbd0ec9e2b7c03ffeU, 0xb8fd21113bb15b9dU, 0xbeeb848a39e054c7U,
  0xbeae2992b7994e45U, 0x3d32ccd4b84e756cU, 0xba22ac00be8dcc41U, 0xb70501a13a937512U,
  0x390f8ca6ba2faa09U, 0xbf879e0f3765eaf5U, 0xbf20e88bb84e4333U, 0xbea9a5d1bf8c7190U,
  0xbe839134be1bcbc7U, 0x399a2286b8bc90f5U, 0xbb547e69ba428badU, 0xbf2959d03a234d74U,
  0xbea921683a98b7a8U, 0xbd0ef577bad91088U, 0x3a36d9b0ba8cdd0fU, 0x39086577b99694afU,
  0xb9ac41c0bf10266cU, 0x3808dfa83d3efb35U, 0xbec9becbbfb153deU, 0xbf2fc09abf10cf44U,
  0xb8fcd2f53c64e97dU, 0xb7614f293a2e3cd7U, 0x384c22ee3c338c39U, 0x394985463af23f4bU,
  0xbe15939d38eecc33U, 0x3c2d0aa73d398e80U, 0xb932dd09b98f8bcbU, 0x3d93317ebb02fd79U,
  0x3bc4979cbeb78ee4U, 0xb88d32c0b9964230U, 0x3a885ec2bb4eef55U, 0x3bc2710ab9aa4414U,
  0x3c7adf14bcff0256U, 0x3b125a4ebaedb9c8U, 0x3cf09b41bc08d221U, 0xb5d364103c7e7253U,
  0xbe7e1c813c7fc3f4U, 0xbb9bcda038ac920cU, 0xb92479a33ba9999eU, 0x3c1ecc1fbf1b7851U,
  0xb99dc62aba3647faU, 0x388e7cd8be3b723dU, 0xbe859e52bc146490U, 0xbe8bb0173a324b3bU,
  0x3719402fbb94a6e6U, 0xbd79d3b63a2b7817U, 0x3875f511bb3d7134U, 0xbebcb21e3aa9ea01U,
  0xbce56f09bfaec175U, 0x385144cb3ceaa788U, 0x3994e176bc2da679U, 0xb8177a02396340b0U,
  0xbf1a7ccfb65bfc61U, 0xb98c7b91bea1ad4fU, 0x3b6636ceb9ce525dU, 0x36f65ec8bcb74f73U,
  0x39a91f4239174dffU, 0xbb407565386a0394U, 0xb78a4384b7409f43U, 0x37927bc8bf2329e5U,
  0xb9addb02beb64589U, 0xbbfb41c238299a46U, 0x3935d253bb842925U, 0xbf4ddf01ba2688f9U,
  0x3e511bb6389a2cd4U, 0x3d09341b399bb524U, 0xb95cb39d3d0ddab6U, 0xb8957af1ba063c66U,
  0xba260ad5b9888168U, 0xbed466b935ca4cb2U, 0x3fe71a25b88958deU, 0xbe932f2dbef8432aU,
  0x3ddfd7c83dd42c77U, 0x39312df1ba692310U, 0x3a03a20c3c7633edU, 0xbe267170b9b93698U,
  0xbe1ca7ce3969fd03U, 0xbbd8eef7b9d3f7f8U, 0x3a5792413a26dea8U, 0xbaccd99eba7ad84aU,
  0x38e398323f8f2a56U, 0x386148323c9d13f5U, 0x3e1ab93f4034c923U, 0x3e9394743f09579cU,
  0x39dd9b7dba109671U, 0x35a7a954b9843afbU, 0x3a0554d13ce1d9f6U, 0x38896c623d0ce2e4U,
  0x3d65a0153a1dbdd0U, 0xbbe8c172bd22c15fU, 0x3a3ea743b9ae6110U, 0x3cb59d0c398fc3b4U,
  0xbe44bf713f424811U, 0xb7cb5a8eb87496ecU, 0x3a352e143caecee0U, 0x3ad3401639eb01adU,
  0x3d1b6100bec0c9beU, 0xbd0976713b558a80U, 0xbf49cc543d09cdc4U, 0x36c279853c28fd9dU,
  0xb9dc31da3dcb79bbU, 0xbad3e378b8c6b9c3U, 0x368e6e62b80d4f2dU, 0x3a89b91f3f5a6ff7U,
  0x39dcc70a3b14e3f9U, 0xb93897ca3dbf18caU, 0x3a7d81803c5eef52U, 0x3da0b0583c13fab8U,
  0xb61d1fedbb42fd99U, 0x3cfda3b2bb999a53U, 0xbaba6fbf3c67cb06U, 0x3fed2211ba74b886U,
  0xbb939f51badc7fceU, 0xb6635555bc403606U, 0xb903043a3e946c39U, 0x381e12223bceb632U,
  0x3f79d491b6dbe19fU, 0xba622e14bd41f2afU, 0x3aca2cd3ba25820dU, 0x3a70bababe907233U,
  0xb9b3f91a3afaf86bU, 0x3bf67b9a3a2eaf6dU, 0x381676b1380d98bdU, 0xb67372d5be603643U,
  0xb74606473d3f17fcU, 0xbb533d1f37881fabU, 0xb898e83c392d5165U, 0xbd6cdc673a11a2acU,
  0x3e663224b7888d57U, 0x3bddb8dd380a4674U, 0x39207aba3e83a4faU, 0xb813c6303a871332U,
  0xb79259483a0d442fU, 0xbe3b152138b6b577U, 0x3f9af770b98541e6U, 0x3c874651be205566U,
  0x3e382f75bd37ca03U, 0xba3227d6ba19b971U, 0xb981b24abbceb849U, 0xbe8584343984a25eU,
  0xbca87bafbb3537b8U, 0x3c848ae53ac716e2U, 0x3aab287d3907023cU, 0xbb8e97d9bb69eed8U,
  0x38708b603f75f751U, 0x37afd4273b7921bbU, 0x3dcb4c35400764adU, 0x3ee63b543edae6a3U,
  0xb982ec133c218cb8U, 0xb73cbc1539285534U, 0xb8a5d55a3c9d5528U, 0xb8d158b03cfbded5U,
  0xbd2578cf3a93fa80U, 0xbbcadb26bd15f331U, 0x3a54a1a13990a682U, 0x3cbd4a7a3b48f8fcU,
  0xbdb3daa13d9fa209U, 0x3822df5db8000d54U, 0xbaeb0db43cb93c52U, 0xba3142c53a2bb3c6U,
  0x3a533e403b3ffd3bU, 0xbbbb0f983b7d7967U, 0xbea958e83cfe6a76U, 0xb6afb8103d1bd067U,
  0xbdb8e4bd3df22ab2U, 0xbacb839cb7fdb8edU, 0xb97d6a763b8de89cU, 0xbb264f7e3f354ae7U,
  0x3a4c41acb8b9b507U, 0xb970c82e3d822c92U, 0x3e0468763bf35419U, 0xbf1291af3b480474U,
  0xb8464bfe3ac663e9U, 0xbcc9b728ba3b5647U, 0x3ad18cb03c8d0454U, 0x400f0fdd3bafe6cbU,
  0xbb992960bec1a02bU, 0x38b4f815bcad2c06U, 0xb9dddb603e8bbb1aU, 0xb9135fa4b99859d5U,
  0x3eb96c0e36c3bf53U, 0x3b04c1623d3651d8U, 0xb7b13bbabb0d6b22U, 0x3a0aecc7beb4e46cU,
  0xb988d077ba18c684U, 0xba6766bf3a3bc72bU, 0xb707986a37a8a62dU, 0x37a8d4e43dc741d2U,
  0x39e9e04cbefc7895U, 0xbd94a55d396c732bU, 0xb902bc5eba407311U, 0x402e1de03a014a7bU,
  0xbe8d9842398cadf9U, 0xbd47e8c738dc5a16U, 0xba7d353f3eec9a7cU, 0xb7b49ea6bb2d92afU,
  0xb93fcc6e39aee6b7U, 0x40270042b717bd4bU, 0xbf11838b37ac2bc7U, 0xbf88a343bf46eb17U,
  0xbdace0e3bdbf1fbaU, 0x37a6c4443a671345U, 0x3b0f68cfbcfbbce3U, 0xbf111901b85b8d23U,
  0xbf09220bba33ccddU, 0xbcee2e2aba3c248cU, 0xb7e95447397b8d24U, 0xb92436c1ba00b30fU,
  0x3995a291bf206f75U, 0xb7bff1253e6c6c16U, 0x402872eabf2a3aeeU, 0x3f341995bd94a52bU,
  0x39509e263b772de1U, 0x38ee6dc8b98891d3U, 0x38313bcbbd5574f4U, 0xb857cc543c352256U,
  0xbea9956b3a6abd11U, 0xbb4dfd12bad49a76U, 0x3a13a32aba0e1ce2U, 0x3dfbbd72381c70a3U,
  0x3f6461c93e904a29U, 0x3852ff6e39bdf4d9U, 0x3b141e85bc9b0684U, 0x3b58ba96bada8173U,
  0x3edb77cf3f2ac828U, 0xbbf4d9cf3b33c237U, 0x3f5dc692bde79216U, 0x37d53aa5bdc44d23U,
  0x3f9a52333b9f3744U, 0xbc192bcfb80ccf87U, 0xb877cb5ebbee4f02U, 0x3bb7398abee1aeb0U,
  0xba8bff62bb7f5652U, 0xb93593e0bcac284cU, 0x3eaf1d8d3a908946U, 0xbf95ef363b8f72f5U,
  0x3767dd80bc05dde6U, 0x3e8e5622bb13d237U, 0xbb2e9593bc027f1bU, 0xbe03c4223bafdb5bU,
  0xbd2a8e76be6f4b26U, 0xb8b66ea13e9d96caU, 0xba13c86ebe911ca2U, 0x3a0ef619bc52c919U,
  0xbcbb393837824fdaU, 0xbb2fb748bf21179cU, 0xba0b83afb975cba6U, 0x3a435ae2be26cd80U,
  0xb966df05ba4c058dU, 0x394cf14f38ebef86U, 0xb8930ad5b6fe85cdU, 0xb828e189be11f20eU,
  0xba6919103df3673fU, 0xbdb45fabb90442d8U, 0x39e0bf093a311644U, 0x3ea61f7639e725e7U,
  0xbee040b4b6d12db3U, 0xbb8c1873b7d24860U, 0xba834f66be076fafU, 0xb632bd4f3a3c083aU,
  0x3a2e90b5b97b9efaU, 0x3f6edc0039e4c490U, 0xbf7a6647391aad63U, 0xbdca2f8fc0207da0U,
  0xbe2e3030bd8ac6d5U, 0xb9569ff9391aaab5U, 0xbab5fbb63d57cda1U, 0xbc9089683972b459U,
  0xbfc4f0e03b0cfcb1U, 0xbb8601edba32eecdU, 0x3876230eba5e7d63U, 0x3bb719ceb9ac9c73U,
  0x3954b2b8bf6431eaU, 0xb5e93fb2bb879e6fU, 0x3ec9f4dabe13e94eU, 0xbebb3b19becebbbeU,
  0xb7ca9da8bae14462U, 0x376afa16370300f9U, 0xb8fda7583c901b03U, 0x38c70dd53b1772afU,
  0x3e01b50b38759763U, 0x3b5538e03ceea89bU, 0x3a911903b8888795U, 0xbc38f37cba53cafbU,
  0xbea2a4603e733e8aU, 0x38c5975a3809bff1U, 0x3aed0559bc5ec446U, 0xba00bb13383b8652U,
  0xbec724d9bdcb05b0U, 0x3be08becba0497d0U, 0x3ba02b69bc4590caU, 0x378da7963bb386feU,
  0xbe527f92bcd7bb0dU, 0x3a44792338b267f1U, 0xb948b89dbab9efffU, 0xbab82d3abea129dfU,
  0x394b313bbab25739U, 0xb8beccf5be3c5ae8U, 0xbf352a8ab54dbda5U, 0x3dd47bf93a8c3214U,
  0xb837acd7ba8688b4U, 0xbc495fac3c2b3d6cU, 0xb9b06fab3c270e71U, 0xbf38e73dba3b1029U,
  0xbc6c11cac023dd1fU, 0x3939a180bc9d6b78U, 0xbb2c618abbb2ad74U, 0x3957c4fc3b109155U,
  0xbea5c13bb78844eeU, 0x3a74f54c3f176717U, 0x3aa54fc738e45f1bU, 0xb99e08db3f28cc9eU,
  0x39e494c4397b0fd4U, 0xbcc05673ba46db16U, 0x3700b048b63befe6U, 0xb89bea66bf8e8263U,
  0xbaee4aa23f7fd49eU, 0x3ddd5f5634a506f7U, 0x391555df3ba44eb3U, 0xbf0cfe75ba99ddbfU,
  0x3eacdf47b9d8af1fU, 0xbde430f9b738e8c1U, 0xb98032043e8392b6U, 0xb7ed9ae03c11377dU,
  0x3787371db9f03b71U, 0xbe018667b8109a92U, 0xbf0af3193907ee2dU, 0x3f79f3183f7a3739U,
  0xbe06f1643e81c5acU, 0x3b3090edba990255U, 0x3b187cc63e0375ddU, 0x3fc0bebe3a2d2b53U,
  0x3f9090ff3ad75584U, 0x3d8949af3ab80e5dU, 0xb8fc935fba336c5fU, 0xbb3df27439e3d761U,
  0xb949b1f5bdabf152U, 0x388491e6bb338292U, 0xbf04ab4c3e033314U, 0xbdc9a7b0bd4ab92dU,
  0x3a2580263a9ac46aU, 0x37c3c442b9019533U, 0xb971d124bd110fa4U, 0xb93f8ff23c7a87e0U,
  0x3e5ecbab3947776aU, 0xbc3bd08b3b2369d5U, 0x3b5bf5c23abe4bd2U, 0xbe554e813ad1b1daU,
  0xbd972c143ee5822fU, 0xb9dd6591392f7202U, 0x3a7a21403e04efebU, 0xbb9ee243b8eee3d1U,
  0xbd80327e3b39d953U, 0xbd13cf06bb6b6acaU, 0x3f4142a33e22d8fcU, 0x371b28643e188585U,
  0x3d28c560bd890d35U, 0x3c8f122a38375b5eU, 0x393af3f4bd256b7cU, 0xbcb7e7d5be9c6a9dU,
  0xb9cd0479bb001158U, 0xb93d6bb1bce04f57U, 0xbca3e6ef3e209590U, 0x3f5272f23b28e7cbU,
  0xb6a2f7753c9271f6U, 0xbde1cdf1bc07d067U, 0xbab83b613c2290d2U, 0xbf07bd00bb9b7c2fU,
  0x3d596e99be728bdfU, 0x37a8bcc3bc2d49b3U, 0xb9c2a4353e2ef7f9U, 0x39eba7bdbc0aced1U,
  0x3bcf3960b759b341U, 0x39cd0a473f0648deU, 0x392f31d03a728bb3U, 0xba8877643eddb161U,
  0x39329d5e38e9a19eU, 0x3b623244b9cf6395U, 0xb8744c8a374fecb1U, 0xb9a33f7f3f2207a2U,
  0xb807657b3e6fdbc0U, 0x3c561e0638d508d9U, 0xb92c9ae8b8c9fe1cU, 0xbfd5b05b39a0bd8fU,
  0x3e605d12396e3e78U, 0x3b809000b84827faU, 0x3a281f5fbcd38276U, 0xb7407cc2ba8a3a04U,
  0x3973de86b8b96023U, 0xbeaa496ab8b6ab2dU, 0xbae525fcb9a2229aU, 0xbaae18f14033ab82U,
  0x3a42b06d3e0b5551U, 0xb8c076ccb967c3ccU, 0x3a5ad4ec3d0ddd61U, 0x3f0ce12a39548d75U,
  0x3fb4a5713b0c7cb7U, 0x3bdb1c4bbaf903bfU, 0xb93593b53a37245cU, 0x3a07eeef39a1e7bcU,
  0x3867aa55bd139f13U, 0x372280713a536bbcU, 0xbffce0c93dfd2dfeU, 0xbeb0eb9bbd90002fU,
  0xb9a522aa3bb3c4ceU, 0x38c284e9b988dbdfU, 0xb99b0d38baceb486U, 0xba0a07c53b49b136U,
  0xbe2a9ae039a8fe66U, 0xbbe6b4163c0e0dd1U, 0x3a7e9813b9fff33bU, 0xbe078365b8328f56U,
  0x3e04f167bd08a5e9U, 0x392ed33f3970125bU, 0x3a1eabcf3bfb9322U, 0x38a1ee673a82825dU,
  0xbc87bb953f75f477U, 0xbca5b6fb3b85c003U, 0x3f0013e13ce33b33U, 0x34e9f767bc3e7840U,
  0x3b17cacfba0a8c90U, 0x3bc51c3b3828a455U, 0xb932d812bcad8fc7U, 0xb911c5b6becb1c68U,
  0xb99c35a3bb735593U, 0xb55d0fca3df242c0U, 0x3d9bdb7dbbaac32aU, 0x3f6a56ccb9da3ee2U,
  0xb7e9dcf83aceb22eU, 0xbb9c969ebb9013ecU, 0x38c545e83b427d70U, 0x3e47ceeeba436607U,
  0x3d08e08a4017151bU, 0xb7ad57dd3bda68a9U, 0xba5d66da3eaf0443U, 0xb83ac2af3a5480a6U,
  0xbda04709370619b4U, 0xbab70577bed48f1fU, 0xbb463e7a39a0f707U, 0x39742cfa3cb33fd6U,
  0x38dd4814391378f6U, 0xb8dffc8939a3054bU, 0x379caa6ab583b5acU, 0x37bdbf843fb91060U,
  0xb9bf57893fd0d119U, 0x3de712053987a44dU, 0xb8118501ba08b1f0U, 0x3e505b5d39a5976cU,
  0x3e5c18d639556bf4U, 0x3d9b864038bba889U, 0x3b0c7a21bc778c6aU, 0xb79851503bae1109U,
  0x388b2d5d3b4abf19U, 0xbc9000e7b893d85bU, 0x3eab43893979f13fU, 0x3fd602d03fdd81cdU,
  0xbe45d5c23e6fbe7eU, 0x3a92d72a395408daU, 0x3a485d553e4de0bfU, 0x40035367b8839988U,
  0x3fb70f553932d73eU, 0x3d9cc6bcbb12f827U, 0x3a84f2a8b9b6b971U, 0xbc226883ba8b5cc6U,
  0xb8ff5b563dc3b0eeU, 0xb77551773d079347U, 0xbf40c32f3d362f84U, 0xbe2d4803bd4bcd5fU,
  0x3a1718713b403428U, 0x371ca11538484e6dU, 0x38966d8a3cc1dcd5U, 0x36c9b746bc111cfeU,
  0x3dcfe7d83a03de10U, 0x3af66d30bc2b4311U, 0x397cff6dbac06cacU, 0xbf0c99b838f7a6f2U,
  0x3e84f7513e3bb123U, 0xb89bd49c3a19339cU, 0xb9f596c53d632e4cU, 0xbbcd7ef2b99886f7U,
  0xbe5d9f103e2676acU, 0xbb90827ab99b6647U, 0x3e7fcde03e84adcbU, 0x37bc03173da32deeU,
  0xbeb23c5dbdbd6c8aU, 0x3b7267d2b8b4e98fU, 0x38e9e046bd3682dbU, 0xbbb5d3b33e48d4e7U,
  0xba4f13c5372c7206U, 0xb91ffb4f3d9d1732U, 0x3e802f2c3d78cb01U, 0x3fadbd99ba0262ebU,
  0xb68407953baeace8U, 0xbd2d49f0ba9b6ac1U, 0xb93ac6353c56eebcU, 0xbe1d99673a839411U,
  0x3e268c4f3fa5e614U, 0xb72b41583ca5a56aU, 0x3a8da5b03e22b180U, 0x38444fc23a42f7f2U,
  0x3c8a00bc369c2842U, 0xbba522893e56854eU, 0xba55232239906a20U, 0x39eaf1083ff9afebU,
  0x39b61aa5ba2e8348U, 0x3c20cccbb818a462U, 0xb83bb266b8016f0bU, 0xb8afdf8b3f35ed9aU,
  0xb9f7d4e0bf75205aU, 0xbbe2c2e23909690aU, 0x372ff6ccbc205a7eU, 0xc0124cfd39e3a79dU,
  0x3ebb54093a94f03aU, 0xbd28e07b3561323bU, 0xba1d9d2dbdf52b2eU, 0x37c289cfbb01c1baU,
  0xb994098c3a80acf6U, 0xbe839998393e1177U, 0x3faceb9eba276210U, 0xbf43387ebef1bb37U,
  0xbc97dfa93ded6310U, 0x3a070224ba91779fU, 0x39f9a5163dba6c3bU, 0xbe187880b94f4938U,
  0xbf64d0fab9f0d6beU, 0x3b0552a53a650fc1U, 0x39cb84193aa3744eU, 0x3b4cea023a3e180cU,
  0x3a0b5a913fd48549U, 0x3716f74cbd729652U, 0xbf7f2f3e3f33e193U, 0x3edde8c53f7f672dU,
  0x3a261f513bdb36e1U, 0x3885fa193820a4a3U, 0xb92ee54a3c0c563eU, 0xb958943b3d0c29aeU,
  0x3b8cfc2e3afad90cU, 0xbcc0e71cbd890357U, 0xba887baeb9aed355U, 0x3c87d6a7b98161f3U,
  0xbe56375dbe31f9a5U, 0x38ca3c42ba135c31U, 0x3abefca73cadd322U, 0x3b4e910b3b31a3ccU,
  0x3d42a6d9bf442a57U, 0xbd5ec5673a1c93f3U, 0xbf699c4a3d196e1eU, 0x378e1c283c9852c6U,
  0x3c0dfda43dcc33e6U, 0x3c9dbc443758c700U, 0xb8141c2bbcb021f7U, 0xbc784a3c3f69f03dU,
  0x39cd25a0ba3389feU, 0xb99f6c933d45a71bU, 0x3e1f8e76bcbcb755U, 0x3dfb77fe3c75749fU,
  0xb792f50c3b99ddcfU, 0x3bf6cbc1bb66df2aU, 0xb96671e13bca4092U, 0x3fa386643bd773c2U,
  0xbe3be1b8beb33ff2U, 0xb7f594eebdb2f028U, 0x3a44bdf5be9e12c0U, 0x39813b09bb8626bfU,
  0x3f166c62b7c2a2d9U, 0x3bb1216abe3d3598U, 0x38a026ba38e7f21eU, 0x39a1ef15bf999472U,
  0x3b0396ed3a6c7629U, 0xb93f24d139557478U, 0x376eb97bb788d996U, 0x3913109cbe5a39bcU,
  0x3a368e173fc761c0U, 0x3e675baab74661caU, 0xb8402da13a0f7e50U, 0xbf35b3c9b93b816fU,
  0x3d2ed1e2b89efd7fU, 0x3d27170138bf9443U, 0xbb109be9bdb0230bU, 0xb7b41e923b49e9dbU,
  0xb95bdafb38dee62eU, 0xbe36a65a39167f42U, 0xbe8c72593a1753c1U, 0x3fd1a0213f9f337dU,
  0xbe8b50b23dc95576U, 0x39c447bb3a4b3204U, 0x3b4fd8a83e4a5d55U, 0x3fbfdede3a02621dU,
  0x3f92f2a33a9df10fU, 0x3e0cce5f395ff575U, 0x37226bfaba088570U, 0xba9217c43aa08866U,
  0xb92acd89bce5159bU, 0x37c7dd14bdce3e4aU, 0x3d48bc07bec513f1U, 0xbe494081be167573U,
  0xb8652c05ba9629fcU, 0xb908803f399abc1cU, 0xb90f024f3c1e88c9U, 0x38137179bba82901U,
  0x3d07b3cfba256ca3U, 0xbbc3f39b3a59512bU, 0xb90d677b39316b8eU, 0xbe8af43c39fe882eU,
  0xbdf8dcd03dd86087U, 0xb46443e2b9d5bfb4U, 0x3bc947d23d125f59U, 0xbb496863b820a271U,
  0xbdb4dd8d3e946abfU, 0xbd1c05e938347073U, 0x3ee9d0c53e7fff9aU, 0xb7677fae3bfd7595U,
  0xbf00bf09bd9bfb5fU, 0x3d060acfb673251bU, 0xb7e66b1ebd7dfb73U, 0x3cc17cacbebfa947U,
  0x399467cb3b74c4f3U, 0x38959c263d8451e7U, 0xbca9f6cd3c1ca885U, 0x3fc47e18bb30fcfcU,
  0x371f68613c5f75dcU, 0xbe4fba48bb18044eU, 0x3af90cf73d80e36dU, 0xbe403538b8e6fe5cU,
  0x3e8dd9d03f4dbb89U, 0x3827a431bd1b9e68U, 0x3a4de11c3d35f19aU, 0x3998c103bae1231dU,
  0x3af270c2b72f33e7U, 0xb9a11dd13f9413f1U, 0xbb12e36b3a141ed7U, 0x39eea45c3f864933U,
  0xb9f11e443360851dU, 0x3b812b07ba9819afU, 0xb602b96638360cf6U, 0xb82292dc3f96c5e8U,
  0x3984d16bb8b0ee9cU, 0x37fab23437a7d349U, 0x39f423543a4520c6U, 0xba5bcb4fb9856280U,
  0x39779a5bb7ae728eU, 0x3ad51f1cb8600dcaU, 0x36d131b3b8aee003U, 0xb7348058393d612dU,
  0xb931a763ba1ec6fdU, 0x3959a2e83599bbfaU, 0x390dd6b6b9bd9cd8U, 0xb9db202db91cc0ceU,
  0xb8d23726b9d6f7f5U, 0x39f7188038fa567eU, 0x39ba1bb3ba07911eU, 0x387e88b4b8569f12U,
  0x38483bff3af76989U, 0x3956fc7fba01ae4fU, 0x3a8e29f339d9dc53U, 0x3835619fb9230a3fU,
  0x391b063e3a55fccaU, 0xb7adca423a2b0c7cU, 0xb995b3d3b957aa22U, 0xb89d8d5c39ffd57eU,
  0x398189bbb9669efeU, 0x367bd15139f8e20cU, 0xb9179fa8390103adU, 0xb8632b973a299f98U,
  0x38a18cd438eff395U, 0x38e8b139b7e8180bU, 0x3a05cf3abb28d29aU, 0xb9dd8b3f399b5999U,
  0xb8fb48d8ba64019cU, 0x39eed0b73813ba22U, 0x3882153bb90abc60U, 0xb9d8fc49b4e1b01cU,
  0xb91803ddb9d4da66U, 0xba0e3c4039c0878aU, 0xba017fb937d1b56cU, 0xb63f302439fa5dc6U,
  0x3a162b25b84023fdU, 0x392e14cc38b8e574U, 0xb9b00f2f398d9e34U, 0x3ad3f316b86680e7U,
  0xb947a29e39cc28c0U, 0x37029569b9bd8d71U, 0xb80f788839981c9dU, 0xb891648aba791ae4U,
  0xb71b7941b87aaa0aU, 0x38a004f33907ef2cU, 0xb8612d79b862a957U, 0xb9272b0339a9a04eU,
  0xb910d31fba09a2c6U, 0x3754cc5cb98f478dU, 0xb83dbe613837fd76U, 0xb8e3ab833a342ee2U,
  0x389f56efb64e6206U, 0x3a474072391ae940U, 0x38c007e8b968c4baU, 0x3805a04f3954ab4dU,
  0xb9b0b6cd3a692feaU, 0xb75cc80238b4dfebU, 0x36e3afd837340129U, 0x37f34bed38c3c1a5U,
  0xb9e9a1883f8e68e1U, 0x3dbb62b638c05edfU, 0x380ab6d43c6a33e7U, 0x3c2aae3c3a37103dU,
  0x3eda521c381cc1c1U, 0xbd2cedbfb8304de8U, 0xbbd4f147beb964faU, 0x3716bd733becf4f2U,
  0x38bc9f16399bf33bU, 0xbf14daf03999ee68U, 0xbf04b0f9b9d1413aU, 0x3f661ddac007511bU,
  0xbe0e85213e15750bU, 0xb9694166ba22cddcU, 0x3ac37fe93e2f4c29U, 0x3f8c2606b90a376cU,
  0xbf4ea4aabb580f2dU, 0x3c221d98ba91400bU, 0xb9e418b43a4450d3U, 0xba13210c3b22db4dU,
  0x3a32e0d7bea90d42U, 0x3857da02bdc7f10cU, 0xbdbcc4eebf19962aU, 0xbed4d774bf317027U,
  0x38ab2c3b3d76c6e7U, 0xb892cde639ab4cbaU, 0x385ebba03da44a99U, 0x392b942c3cda6738U,
  0x3f2a74cfb8da4f9aU, 0x3c7a8bc03d311f25U, 0x3c366d4db9fc3c5fU, 0xbe964fd439c1527cU,
  0xbeb6406b3d7cc4a6U, 0xb99a7476b840bd06U, 0xb9b3e5083c264608U, 0xbb7a510db8ce45edU,
  0xbd9de944bf09f02dU, 0x3d2d028aba84ed35U, 0xbf287cc33e07657dU, 0x375727f33ccd8228U,
  0xbf30790dbe6055a4U, 0x3c905f13386e958bU, 0x39d1d3f4bda82730U, 0x3c2667c3be8aa410U,
  0xb8b1ba983b80fae8U, 0x39a981783b13733aU, 0xbf1ffb4d3c6c9647U, 0x3f4ac247bb83603aU,
  0x37c111653bccc1d0U, 0xbd60efe2bc018aafU, 0x3a9fcc313bb2490cU, 0xbf9b397ebbc3183cU,
  0x3e0572d9bf486036U, 0x3918da5d3c51f0f1U, 0x39c18f4abe9e05afU, 0x39200e84ba5da816U,
  0xbe3f97323768e2ccU, 0x3b5239d2bda7ec88U, 0xbb8a2f71bb86ce35U, 0x3b0e8c503fbfd21fU,
  0x3a14e6843a4ef5a3U, 0x3bbe2acfbb989891U, 0xb841a0e3b833cf80U, 0x39602c9ebf5853c3U,
  0xb8682377ba361d42U, 0x3914b5d7b89cda4aU, 0x392c7539b9ae15cdU, 0x40188354389b1904U,
  0xbaa3a80237ae1190U, 0x3994b2f9b786e042U, 0xb799751a3ec4bca0U, 0xb62de2f7b9f8d0d1U,
  0x36ca0262b988a732U, 0x3d853276b83299c0U, 0x3baf4217b9128055U, 0x3a4f67e6bd356ae5U,
  0x3c2fb3d3bc9a49daU, 0x39ee0fd2b98649d1U, 0xb8cf00ee3935b41fU, 0xbbaa5c17b9942020U,
  0x3e8963ee3a22e8efU, 0x375fc9b1bafe9223U, 0x39319155ba389e28U, 0xba38375639910e99U,
  0xb871d998bbb8e0c7U, 0xb7aa343fb957f0ffU, 0x3fdab388be3efad5U, 0x3b1952fabd737aacU,
  0x3794e397b9d3361cU, 0x3778532536845545U, 0x37fc02923916b508U, 0x37f9ee2939de1192U,
  0x3bb8970038f157f4U, 0x38a1eec038bda04fU, 0xb9d66a6a38f3e394U, 0x3b11f8ab39a68a3aU,
  0x3d660e193c5b06f3U, 0xb99224f8b80b8447U, 0xb93c357e3a343000U, 0xb9d1eec8b860eb6aU,
  0x389b18f23f90c174U, 0xb9d5f93bb965e90cU, 0x3f8c7fc4ba8b2858U, 0xb750667cba105536U,
  0x3d119192b8ca085bU, 0xb931a6f536af2807U, 0x391191163ad7d68fU, 0x39c51678bd9f5ba1U,
  0xb95ecbbd39c85ffdU, 0x375a55d2bb46a653U, 0x3bb78edb3aa30381U, 0xbd0853c2b9fed5f2U,
  0x36a3c43ab95df65dU, 0xbcb4e72db9f4c9b2U, 0xb997dfb839963fa6U, 0xbe62a3a8b984e4ffU,
  0xb9891b34bfcd3590U, 0xb745725cba01cd5eU, 0xb8d321d538a2fe2eU, 0xb9c6d9f438541506U,
  0xbaa42697b7d4c448U, 0x39b311aebbedc0d3U, 0x3961933c3a5309a0U, 0xb836458a3c309b21U,
  0x38704b9fb98ef940U, 0xb82e3be13969164cU, 0xb6b41e873772146dU, 0x37b1edfcbcc17589U,
  0xba60fd2fbf8269b8U, 0xbc2527ceb9383848U, 0x39921e0dbac9d70dU, 0xbfe73465b9cec48dU,
  0xbece7dcfb97a4ef1U, 0x3c6533b3387d6183U, 0xb97115463e095c38U, 0xb78e0ded3b165c1dU,
  0xb9a42520ba17f17aU, 0xbf8067e4b923e129U, 0xbfcb31da38f946f7U, 0xbf44a4cec00b4818U,
  0xbeb4d240bd97e571U, 0x39e4111eb9d9598aU, 0xba600e2dbd9a772fU, 0x3d4cd958b98c806aU,
  0xbe828c1eb780594cU, 0xbcea05e8ba3151a2U, 0x3a39b078b8abfeebU, 0x3b0aac0b36de8bb5U,
  0x39b39ebdbe2a8df5U, 0xb6e561fcbe99e0eeU, 0xbfc59435bfbdd19aU, 0xbe07e2eabf338cdeU,
  0xb98a1cedbc00f440U, 0xb83df503399cc7beU, 0x38355eb1bc7127eaU, 0x3792e1b4bc0b5b80U,
  0xbf30aa18387e4a74U, 0x3c248c713d82843bU, 0xba581cf13a5bc6ccU, 0x3da4e01339d0cf52U,
  0xbf26168abf671c40U, 0x38ad7ffe3a92e36fU, 0x3820b2c4bbb74a34U, 0xbc0252c8ba2ca1ebU,
  0xbed9c80cbe7cd3d6U, 0xb8aba4e83a49cefaU, 0xbf34c594bd82e4ddU, 0xb6bcdb733d0dd91aU,
  0xbebbd184bccee340U, 0xbbc6f52038214488U, 0xb8ff3a603d82bca7U, 0xbc24428abe827c94U,
  0x38e88da1bb63248fU, 0x387111c9be958428U, 0xbeddc14a3c829849U, 0xbf3a3ed23b44a4daU,
  0x36af11c8baef6a1aU, 0xbf330d343b0b4d6bU, 0x3b56f868bc405722U, 0xbfc73c1aba095c31U,
  0x3ccd8c87bfe17dd0U, 0xb89b0ccabe144443U, 0xb899de2fbcc31456U, 0x3a1c39753a448c52U,
  0xbed122f636b2beb8U, 0xbb7fcb6abf37e040U, 0x3ad39eba390701f0U, 0xb8c2d0f8bf8b6e4bU,
  0x38df6870ba5862d1U, 0xbb71e039b9b21146U, 0x37dee48d37c5eccdU, 0x38b08a3dbedd916fU,
  0x39319efcbe9acbf3U, 0xbd36e17439106dc0U, 0xb88a28b7bab00ce4U, 0x40051373b8abbc7bU,
  0xbe358f11392f6398U, 0xbc3dc88c37aeabb4U, 0x3ab8418abdc26cabU, 0x37bde960ba19ea12U,
  0xba548613ba87e597U, 0x3ffbbb3a375b2332U, 0xbea2cffb39a7addfU, 0xbf3ff012be74a99bU,
  0x3e24a32dbe8e9076U, 0x3993ff2aba752cecU, 0x3b004330bd8232f1U, 0xbec163ceb9ebcce2U,
  0xbf3cb9da3a419003U, 0xbbb535ac3a893413U, 0xb9b5ca6f39b039e3U, 0xbaaa87e63606bbffU,
  0xb79a72afbe9a83fcU, 0x37e8a0993f21b044U, 0x40091643bd15f947U, 0x3ec9d8eabd122578U,
  0xb914f883bcaafa3cU, 0x37f350123a10ff5cU, 0x38f0a7b13c7afd76U, 0x390ee9813a02c75dU,
  0xbd2615cab8b66f95U, 0x3b11c53a3ab21ed5U, 0x39315b8239e8f5dbU, 0x3e3d3dd73a737e24U,
  0x3f880122be89f35cU, 0xb9d2d0c238a42188U, 0xba36807dbd08d865U, 0x3b3f161e396fa2b9U,
  0x3e104f853e413a0fU, 0x3be8002c3b031bf4U, 0x3f65ab56bd4575e0U, 0x36c78fb9bda25021U,
  0x3f07e9123b65e23eU, 0xbc50ca71b7c36455U, 0x37734d81bbc4d327U, 0x3bc8cd09bec6a7e8U,
  0x3a15f0f9b910e1edU, 0xb93468863d12588aU, 0x3ec40fd1bb788cccU, 0xbe0ab2b63bd6e502U,
  0x36879a12bb06c7f6U, 0x3e6ce42aba7cf728U, 0xbb7fea3fb9aa7f6dU, 0xbf33d1c63b3544b6U,
  0xbdb581c93f4f33f4U, 0x38ba4c943eccdf62U, 0x399827c2bdb28db6U, 0xb9ed63023a08f183U,
  0xbd23d79d3739bf1cU, 0xba2ce015bd14910bU, 0x3a831985b91621a8U, 0x392b88d3be9d375dU,
  0x3901dc0c3a804eecU, 0xb96f5c1cb80d5124U, 0x364a5498b736a139U, 0xb8e61581bee8d9fbU,
  0x396950813e2fb360U, 0x3d97040837069cb1U, 0xb8642821badda20dU, 0xbe801c1eb839af3bU,
  0x3eb57561382dd2dfU, 0x3c97e33bb7a12e93U, 0x39804fa53e4449f1U, 0xb774f3413a4c326bU,
  0x378b5eb93a8ed528U, 0xbdd7fbb1379e1487U, 0x3e3111ef3934daaaU, 0x3f232dfa3e373a8eU,
  0xbe882c6f3e13252bU, 0xb695588739f8e9c7U, 0xba8fe1b4bd878a28U, 0x3ef18b70b99ad204U,
  0x3e8d78883b45f16bU, 0xbb8ac4a03b0d2dc9U, 0x39bc1408b9ba95abU, 0x38c46c003af5c56eU,
  0xb81ecdff3d58216dU, 0x3567c5783ca09c1eU, 0xbee47813be773449U, 0xbe6917383d248bd6U,
  0xb95ff8c7bb7fdfe0U, 0x38775a38399fb5e8U, 0x38a249f5bb636490U, 0xb8ba84b53a94ab45U,
  0xbe36d64e386499c6U, 0xbadd6f88bd20228bU, 0x3b3f54e1b9317c0aU, 0xbd7cf63139a84cb1U,
  0xbd7255143c1b6459U, 0xb6fabb2b35d0c087U, 0x39ff3e763c22937cU, 0xbb68ecebb7d20603U,
  0xbca5226c3ec554f3U, 0x3935532eb98d588fU, 0x3e90a7153dfd50a2U, 0xb6550223bc88bfc0U,
  0xbe9790483b46ebc1U, 0x3a766479b7e7eb98U, 0x3902ef8cbc7b85dbU, 0xbc3c6f2c3d97a36bU,
  0xb9b4c91a3b0a1d71U, 0x390b56f43da3836fU, 0x3cb26366bb9ea88bU, 0x3f08cec43a8c8715U,
  0x37849cc33bfc04aeU, 0xbc9051013aa8251aU, 0x3add9b9fba8e243cU, 0xbc874faabb1d31bdU,
  0x3d7a188b3ec5ecf0U, 0xb71fc6b03b8f27c9U, 0xb9a031523e0b2b0cU, 0xb787421c3a432fc9U,
  0x3d00838cb834555cU, 0xbaa917593e71b5f0U, 0xbaf4359fb8818925U, 0xba00a3f23e1d1c42U,
  0xb8a543e239ffbcbcU, 0x3b3ef13638f42d8aU, 0x37002a94b5a4a43bU, 0xb8b40f043f09aee4U,
  0x39e0ae663e52c7bdU, 0xbcef649239727945U, 0x37d12aa2bb5a3317U, 0x405c28fbba86911dU,
  0xbe38b8ce3997429dU, 0xbd2300d436bb9184U, 0xb77fdc903e9176c1U, 0xb72761f73841a8efU,
  0xb98acde138a73f0bU, 0x3f8ec0d837de007bU, 0xbe24357339a41980U, 0xbed67d39be306a54U,
  0x3f24030ebe60c8a7U, 0xb9e5d5953979878dU, 0x3b1f0ca2bd824ce4U, 0xbef3c1c838a03da5U,
  0x3b3bc12b3a8aa0a4U, 0xbb349c0b3a8cc015U, 0x389ef2d0b8d95e11U, 0x3a8762b83883e00fU,
  0xb89c4fe6bf1287d9U, 0xb8065c013d72284aU, 0x3fb4b713bebd4683U, 0x3e8537913cc41ed5U,
  0x34a9518a3c0035e2U, 0xb7d3b73b3a062d73U, 0xb9b111b93c174006U, 0x391b69923ba03df6U,
  0x3e0150543946c433U, 0xbafdb889b96bd7d4U, 0x398de1513a895053U, 0x3e44e5f239808d8aU,
  0x3f1928063e9cbebeU, 0x39f5567ab92b4436U, 0x3b30b76bbb7130deU, 0x3a09465c3a701ff2U,
  0xbaf431e4bdb0d794U, 0xbc345006b9e20394U, 0x3e80b744bcee19a8U, 0x36d822bbbd2f1de8U,
  0x3f0ee6903b5c9590U, 0x3b1bdbbab7c0aad6U, 0xb91d7db8bcc62793U, 0x3b024f02bccb6f8bU,
  0xb910ec48bbd195e6U, 0x390bc00b3cd75d91U, 0x3e9ff749bb80a047U, 0xbea84454b9c9f20aU,
  0xb5e2e66c37fefffaU, 0x3f06c66b3ae44909U, 0xba5fa328ba09ac16U, 0xbe53d6ba3b4d1444U,
  0xbc1adab6bed20ac1U, 0x377097133dade239U, 0x39a085bbbd1d4de0U, 0x395da6423b23d465U,
  0xbc1d3bfb372efb11U, 0x3a67fbbc3fa8d992U, 0xbaac02feba0514a6U, 0x39ad1531bed393cbU,
  0x39c017dd39c81b73U, 0xba0b1ff1ba98300cU, 0xb7bc2250b6cdde7dU, 0x380099fdbd821ae5U,
  0xb996904bbe609db8U, 0xbc4e1f45b9d697f7U, 0xb694ac84bab4d650U, 0xc001bc77b98cad7cU,
  0xbe936f7cb9d1ad8fU, 0x3d0f137537c1880dU, 0x3a72188fbe265b43U, 0xb7a80b27ba5c7477U,
  0xb90d4cd63a4bdaa0U, 0xc0431464b809fe88U, 0xbd36c4e3b81ba94aU, 0xbec0e207be563fa0U,
  0xbfaae0ebbe0383aeU, 0x3a9da9b839b59703U, 0x3a599258bb3975ccU, 0xbf1d4b6b38416eb8U,
  0xbfb2a9e139b4320aU, 0xbb9d5a87b9e111a6U, 0x39334da43913cc95U, 0xba79c524bab54ba1U,
  0x399c49aabd08e08fU, 0x38c37fbbbe811983U, 0xbf8c6dc8bed3a03fU, 0xbee97594be51ea3cU,
  0x39e93a433a86f91fU, 0xb887b7bc38035a7eU, 0x39600bcfbb3a1d71U, 0xb8102b3cbbdd2e0aU,
  0xbf5fcd8a38923752U, 0x3c772172bcc295b7U, 0xba4311e4393d87f6U, 0x3cb0a2f1ba0d762fU,
  0xbf071848bf725eb5U, 0x395b6a28b94d5a2bU, 0x394104ffbc7d5e3fU, 0x3b8b87f3ba6ff87eU,
  0xbf8edc84bf45eb78U, 0x3a1a9af9ba60bd6dU, 0xbedb7b353c0ad523U, 0x379d96fa3cdae904U,
  0xbfae8e8d3b539ef3U, 0xbbbfc927b6f44f0fU, 0xb89c2e083d6ef40fU, 0x39b1fa74bed809d3U,
  0x38fde81e3a93690aU, 0x3929e385beb11792U, 0xbea319bb3bcdae66U, 0xbf1cd43939bfcfa8U,
  0xb64bcc213a67a2e9U, 0xbf3681db3b3a9603U, 0xba3433253ac14629U, 0xbea9620c399fba9aU,
  0x3d409342c00588f2U, 0xb771996abd84fdd5U, 0x398a73733e04bf8cU, 0x3a45133f3ba58755U,
  0xbe86bda036e3d6a3U, 0xbafad092bcf1fc5bU, 0x3b7086a3b953e1c1U, 0x39ee96d8be98c8a7U,
  0xb9ccdde238c85a7bU, 0xbb4317f9baa8ef76U, 0xb7c40911b6e7215dU, 0x3853da0cbf9df196U,
  0xb9eec51d3fe19ad1U, 0x3d941445bab8304eU, 0x39b8a8533b1539ebU, 0xbf391754b9464032U,
  0x3e226276b973c1c4U, 0xbcd0a36737c999eaU, 0xbb9f30a7bd507010U, 0xb71259783bd27e23U,
  0x389ec52c3ac11f60U, 0xbea7001439bf0d14U, 0xbba7031dba78f267U, 0x3f8eed3fbfc3a82fU,
  0x3e1fe4d83b666752U, 0x39c8b9dcba9ea475U, 0xba43ab563e7b01e9U, 0x3f848a61b9a47f3aU,
  0x3db243153ac96c16U, 0x3c369eb639bb1afbU, 0x37e1bd0039aa347bU, 0x3b674af63c6a6a75U,
  0xb9c0d7783ebb5ab9U, 0x3781520ebbe2ae47U, 0xbf705984bd4a2be8U, 0xbdccf730be4b5267U,
  0x395b6df8bba65d93U, 0x37d73a5139019c7fU, 0xb97eb7a63d02d666U, 0x3a87ccd8bc3a4804U,
  0x3f8bfce236ad6751U, 0x3cbefbf8bcb0d6d4U, 0x39ef065f3a2028adU, 0xbee327fc39034ffbU,
  0xbea7aa9b3f224424U, 0xb898fe9bba762cb9U, 0xba900444bbd5c4c9U, 0xbbabee5ebabc2b54U,
  0xbda7f6a8bf28b7b6U, 0x3d534f71bbf54ff9U, 0xbf97858c3e0354baU, 0xb6d2e29b3ceddf7eU,
  0xbe25e5c3bd988f59U, 0x3c6a2813398c38baU, 0xb97dc9e53d34e35cU, 0x3a08ee5bbf24d58bU,
  0xb9a9b5c23b0cd2f0U, 0x388eaa27bd70b418U, 0xbd926707bc02ae60U, 0x3f5fac1abb0a4a1dU,
  0xb77d0e283c8a82adU, 0x3e43e23dbb3525d3U, 0x3b0a7b773b660199U, 0x3f522bb0baeed60dU,
  0x3e89f1b7bfdcbe18U, 0x374879243bd053daU, 0x3a3c3e9dbde441b5U, 0xb951287ebbcead22U,
  0x3cfa3a16b7281019U, 0x3c5242ab3fb7b6caU, 0x3b43193dbb47583fU, 0xb99d311c3fa8468dU,
  0xba297eb5371cff8dU, 0x3b497dfbb9e2e8f8U, 0xb69e09b7330c8b36U, 0xb767f985bf4d026aU,
  0x3816ddf0bf0cdfa4U, 0x3cbaad04ba0abe0cU, 0xb9134da23b27989aU, 0xbf9c31d5ba6788c2U,
  0x3eb38970b931c2a4U, 0xbe5c1cde3833a46bU, 0xba2c61313e1db229U, 0x36b143443a0297f9U,
  0xb96f199bba1f8e69U, 0xbf9c16313823c736U, 0x3fe28849b89d2a75U, 0xbec8b551bfa5df0bU,
  0xbcb2d9753d4941c6U, 0x37db0cdbbaf1c37eU, 0xba2d9ba3bdaf109aU, 0xbe1e8c6b3994fa35U,
  0xbef30066b9ef659fU, 0xba22ad95bacc0b03U, 0xb905a62fb9bd02fbU, 0x3a3ad102ba236dbeU,
  0x3960948f3fc5e951U, 0x35dcb62abdef468dU, 0xbfa6133f3fa9f8c8U, 0x3ef2371c3f25ea04U,
  0xb8260356b9b80ecbU, 0x37cb8a5cba694f14U, 0x39063737bc15fa94U, 0xb8a999f63c777576U,
  0xbd7f47a639ab6489U, 0xb8bdd137bd876b14U, 0xba3a6fb239322a12U, 0x3e65627fb76e6aeaU,
  0xbea07447be5d9446U, 0x3852f659ba1da511U, 0x3955763a3ba4947bU, 0xbc287e4e3ae403c4U,
  0x3b626dc5bf4cb96bU, 0xbc581bafbb89e202U, 0xbf4e97fbbcf10e65U, 0x37bb680dbd39ac3dU,
  0xbdba4abd3e512034U, 0xbacf670438849302U, 0xb85ac26e3bf339fdU, 0xbc0f2bea3f612185U,
  0x39520f403af1adbdU, 0x3978d3ef3e3a17f7U, 0x3eb961a2bcab7b6eU, 0xbdad7c7839d96fc1U,
  0x37bebea23aeb3b8eU, 0xba005188bbb2b7c2U, 0x3924e1d93a28edc1U, 0x3fc2f4b8ba7fa3daU,
  0xbca949b7bf80c8a6U, 0xb7a1159dbda40342U, 0xb9be79a6be02e1f5U, 0x3980d0f3bb043598U,
  0x3e0ca613b6e8cca1U, 0x39ab94223d2aa7a6U, 0x3b1facdcbb495707U, 0xb992cfb1bf5e1c0fU,
  0xba04e4363a52f35dU, 0xb951490c3a07078eU, 0xb76bea15b5e98886U, 0x38e00134be68778aU,
  0x3a135cddbf124673U, 0x3ca64cc8b870f035U, 0x390db3263b6fb2abU, 0xbeca479939b48e25U,
  0x3e19661f38912227U, 0xbcf49aac37342403U, 0xb8321378bd453d5dU, 0x38298e7d3878aaeaU,
  0x388e537abab8f358U, 0xbf5e78e438235d82U, 0xbf465b9239578522U, 0x3b8fd46d401b7395U,
  0xbe469f8cbcf63817U, 0x390f82ed3940fcc3U, 0xb9c5602f3daacf33U, 0xbe8225eb39a2463dU,
  0x3fb983d3bada1f12U, 0x3cd5bea9ba1f8bc4U, 0xb992be2b3a64a1b8U, 0x3ae2ce81bb78602cU,
  0xba2594223d637b87U, 0xb77ae6383d08e289U, 0xbfa8256abf890a47U, 0x3ea1462dbd1ebaf0U,
  0xb9122862ba9de155U, 0x384cdef4ba254b7eU, 0xb8fffb003bf305f1U, 0x38913edebb26bb62U,
  0xbeb3c38fb972ced1U, 0xb9a39cd93bb191cbU, 0x3b7460b5ba440297U, 0x3be66bd5b9e9cba1U,
  0x3cb6d7fcbe2e5179U, 0xb95aa2f93833ee32U, 0x3a04acc4bbcde782U, 0xbbb9b3c639a56fd4U,
  0x3bee85713e88fadeU, 0xbb321dee387a3109U, 0x3f115d133d90c8b4U, 0xb748d54fbc47c025U,
  0xbe3ff37fbbe86d7eU, 0x3bd6b2beb89fe92eU, 0x39a19fcbbc53dfa0U, 0x3b6cbcd4bf0c6c27U,
  0x39b2df95397363a1U, 0xb94d6da33d66273cU, 0x3d9784643bdf7254U, 0xbdd1b421bad8ea48U,
  0x3455ab2cba73551bU, 0xbe049aebb8b9594cU, 0x3ab96cde39000d40U, 0xbdd36b7f3a44a348U,
  0xbd7808543f5c4a21U, 0xb8dd3087bd72c518U, 0xb9cd26673e76c9d5U, 0xb9965ac2ba2a7712U,
  0xbe74e2e8b7f1233eU, 0xbacd7505bf0b2f2aU, 0xbbd2e09bba65e8a7U, 0xb8176c57bf0c6462U,
  0x3a037e613a5ce3c4U, 0xba95a81eb9c9a841U, 0x347fb97737e53ed0U, 0xb906f4cb3f77b94dU,
  0xb9a474cc3d8f8a2eU, 0x3c804a72b681bd69U, 0xb90b413539505a14U, 0xbaf25f4539c776a8U,
  0x3e140b71b837c99fU, 0xbc70d80bb8996863U, 0xb9467a083e608670U, 0x3532766bba8ce38bU,
  0xb999cfaeba20dc4cU, 0xbf23bdf3b8053dccU, 0xbc23935fb89a637eU, 0x3f162524401de59fU,
  0xbdb6dc00bb36f009U, 0x398bcbba3a057b03U, 0x3a1dc1143bba574cU, 0x3e31419739a1848aU,
  0x400b4b68ba009cfbU, 0x3c6ad9133a3552cbU, 0x3a9b340d39d7047dU, 0x3aa8c6a239ac4245U,
  0x387197e0bee6d526U, 0x374863bd3e4caf24U, 0xbfb55a97becdfd3bU, 0xbc80b374bded7fadU,
  0xb9de360b3be823a8U, 0xb80efe34b92be029U, 0xb674f592b894ba6bU, 0x38290defba924a19U,
  0xbc215c6bb856b07fU, 0xbb20bce6ba7c3fe1U, 0xb944f38f373dbff1U, 0xbdb17e68ba04b3b8U,
  0x3f430a9ebeacfa13U, 0x395f1da6b8f43662U, 0xba19504a3bded90eU, 0xbabb9a4bb8f813bcU,
  0xbcb4581d3de003e5U, 0xbb82594c3b944e59U, 0x3f3074c13de8c103U, 0x3619efd5bc0d5000U,
  0x3e4bc8f5ba4618cfU, 0x3b000c7038a8930cU, 0xb90cab96ba862965U, 0xba7ba1d13d077144U,
  0x394602e0bb028ca4U, 0xb8211cc33e068e1bU, 0x3e600cd039901cd1U, 0x3eb14994baa55f20U,
  0xb6fc3f623a9e5c38U, 0xbcb014cd3a9eb422U, 0x3ac556d039d21249U, 0xbee804feb9e1d1faU,
  0x3d2da72740136d26U, 0xb5ff76613c14d01cU, 0xb99f0b473bec2289U, 0x39933b5a3aab5790U,
  0xbd20a24cb78f8ebeU, 0xbaacb94dbe9b8d89U, 0xbb26d3c2bad5ccccU, 0x397cb3bfbe91a9a2U,
  0x390d0a9b3a72381bU, 0xb853503339ade75fU, 0x379f5cb2b6cd8a8eU, 0x3622a5753f821b19U,
  0xba2a4d9e3fb300c0U, 0x3dccbbc53a6c4f52U, 0xb911d1ffbc01ae41U, 0xbf0f8c5e39285041U,
  0x3ec40a5336a72fc3U, 0xbd488c52370db8daU, 0xb90e1a06bed5b8ddU, 0x37d6cf4e3c7ccc1eU,
  0xb9a4f87ab9a39a5fU, 0x3e0b850f397dc195U, 0x3f242e0139fd61c6U, 0x3f8f4f6cbf80d17bU,
  0xbd412a1b3eae98c5U, 0x38bfb7d5b91c3911U, 0x3b1e17373e551883U, 0x3f46abda3ab6a3deU,
  0xbe0729203a7dfc08U, 0x3cc6f58c3819bd31U, 0x39c23d9fb9e8f4ddU, 0xb8eb603f3a8b9b36U,
  0xb9ba1cc83e619780U, 0x36704f4abbc3b48bU, 0x3ea2786bbc84b423U, 0xbe9eeb97bc1b1eebU,
  0xba732fdc3aeead4fU, 0x37f47797b9f6346eU, 0x3a15e36c3cf05a62U, 0xb6e86ce7babc247fU,
  0x3eacdf51ba2b27d3U, 0x3b3ca5823b96846eU, 0x3b9f72093a94f161U, 0xbe55c4b6ba005660U,
  0xbf030e423ec463d7U, 0x3a707f98b8e65d12U, 0x3c01aed7bcea4c49U, 0xbbbcb03ab902a913U,
  0xbdccd0f7ba989e35U, 0xbbc8679c395eb92dU, 0xbed2d2bd3db746f6U, 0x37ade4f03dd83b5eU,
  0x3adbeb18bdae2d4dU, 0x3b0e9aa9b8f6f8cdU, 0x3809e90cbd1ba1b0U, 0xb9973e62be0c3a98U,
  0xba18915c3bb34d61U, 0x37cc76cd3e116456U, 0xbd9b73103be9a561U, 0x3f40289a3aa7f679U,
  0xb52edefd39dffd80U, 0x3dccfe673bce069dU, 0xb9ed8b3e3d27360eU, 0xbc9b81343a96ad1bU,
  0x3d041f35bec3af91U, 0xb72b956c3beed443U, 0xba0ffeb43dd79c7cU, 0xb8986b8eba90250dU,
  0x3c44113eb7e479b8U, 0x3ba62c2abed4bc8aU, 0xbad705afb7d9ca31U, 0xb7b147d63fcbc585U,
  0x39fe46f2b7e5e58eU, 0xba23f5ab39a67286U, 0xb6de294a38127125U, 0xb7bbe859be9ce86cU,
  0xb995d250bd1ad376U, 0x3d823d08391fa206U, 0x38bdb3e8398ecf2cU, 0xbeea89eb3956bdc6U,
  0x3e114130389ff5f5U, 0x3c2f74a2b8fb1140U, 0x39dd78db3de36d38U, 0xb73226423a2db514U,
  0x39d7b81a3909d13bU, 0xbe9b19cd35f85796U, 0x3d6364bc396c8fbfU, 0x3e869f1d3fce7a20U,
  0xbe545a173da1da35U, 0x39e0ca01b91fe8c1U, 0xb938a925bcac4a75U, 0x3e1f41f33a0eb676U,
  0x4001ea40bb146b35U, 0x3ab85d4e398670d8U, 0x39f313f4b97d753bU, 0x3b33dd6b39bb8202U,
  0xb95543153c02903aU, 0x371d6e6d3a0bfba4U, 0xbec93fd23efe97c5U, 0x3dc85f033d84e26cU,
  0x37be3b64bb62d871U, 0x371d93f33988683fU, 0x3838069d3ade8e76U, 0x38e13c2dbb24a2b3U,
  0xbe2674503893b31fU, 0xb9428ca5bcfdbf7bU, 0x39225e8037bed32fU, 0xbd5cdafaba64584dU,
  0xbdbca94abd720732U, 0xb902177eb8258cd1U, 0xb8d988cd3be28b8eU, 0xb8f878c339560cebU,
  0x3a0bf7843f187768U, 0x3aacd5ee3b23d258U, 0x3d8f02d43ca1941dU, 0xb6b8f659bc132ec5U,
  0xbe092e753b2b6012U, 0x3a857b2a376d1fa2U, 0xb8fa95813a4628cbU, 0x3a4da71c3e80dc29U,
  0xba009b483a50a2e8U, 0xb86f0a953dfbbefeU, 0x3d8a270dbbe67a08U, 0x3e32e4f2b958b2c0U,
  0x36307f4f39a0d2cdU, 0xbd2ffe00b9696e48U, 0x3a363e06bb65a79fU, 0x3ec978d6b9c19ee4U,
  0xba396b153f2de750U, 0xb8c9f936bd1efc45U, 0x37250eb73c020cd8U, 0xb98db3aeba38adcbU,
  0x3c740a2f35121a07U, 0x390e357abe79b1e1U, 0xbb033e38ba79b4faU, 0x3952cac5bd8fe702U,
  0x386606053aba29c0U, 0xb9bf24d9ba4fc5fbU, 0x362aed0237d76683U, 0x37b0d4bd3eff2de5U,
  0xb8a5b6a53e26d7fbU, 0x3d472bffb9a64031U, 0xb95dea5dbb180f7eU, 0xbefaa9c2b915500dU,
  0x3e4f1e7c398d16f8U, 0xbb2151feb73a5c6bU, 0x390c587b3dddec57U, 0xb783984239f5c3c8U,
  0x3a00e779ba8aa3e4U, 0x3dc8718738ad6de4U, 0x3c771a44b8a85f11U, 0x3e9bc7353fcbbe61U,
  0xbbc4a32d3e54c223U, 0xb8b4372839ffa897U, 0xb9508e44bc452eedU, 0x3f08671f39d537baU,
  0x4037c9e438eb98f5U, 0x3cb98dc9ba63c99fU, 0xb9c7c58e39abff9cU, 0x3a29970f39959ac5U,
  0xb9bb7f01be71e826U, 0x358a7d613cb49beaU, 0xbf2eaf76bf455320U, 0xbe4689ba3d575c98U,
  0x392ea396bbfc8b12U, 0x3734592eb8845809U, 0xb854b8d1bc5896a6U, 0x3706c650bb8bc11bU,
  0x3a30aab9391c826aU, 0x38ecb07a3b659331U, 0x3a14821eb95dcb86U, 0xbdbfb0ac39fef49aU,
  0x3f0ca8e9bda4f749U, 0xb8bd3381b635ee76U, 0xb9ae02a3ba1e970bU, 0x39fcdad9374a7108U,
  0x3c556f243efecde3U, 0xbb632ca8bb2a5c99U, 0x3eede53d3de64468U, 0x35357d76bbdaabd9U,
  0xbca90af7bbe83b48U, 0x3b0369f1b7edcb47U, 0xb89f8043bb8ee2f6U, 0x3a3e863dbeb3d834U,
  0xb984cce7bb05f905U, 0xb7b456c83e9acc10U, 0x3e7971fcbb980df3U, 0x3dc38e223aa58077U,
  0xb77d433d3adaa257U, 0xbde2b70dbb5b27afU, 0x3a0f7a5c3b367904U, 0xbe3a057d383ac6e9U,
  0xbae5c630402900faU, 0x37cbe47cbd5ea872U, 0xb995c8adbc0f75aeU, 0x3919106dbacd1225U,
  0xbdfd8e1b369e1d92U, 0x3a291e35be921c6cU, 0x396a75ba3998e96aU, 0xbb158bcabf3bec1eU,
  0x3961d3b2b9efcb85U, 0x39255221398be530U, 0x379dafa4b6e011faU, 0x383eabed3fbec5c3U,
  0x3a84a3f73e9c7f5bU, 0xbd60386339015c1bU, 0xba1b47793c0a01bfU, 0xbf87c13c3a19769eU,
  0xbe52bf31b80ac6b1U, 0x3c892285b8b3291fU, 0xb896e06abf01db01U, 0xb800670d3ac24b3fU,
  0x37415c47b99395f1U, 0x3e85146eb86e3f09U, 0xbf8044703a359ba7U, 0xbee7ad3dbf9a13f5U,
  0xbf7da2b83d58111dU, 0xba6a10d23abc1ceeU, 0xba7b24edbb00c636U, 0xbefb81d7b923cd60U,
  0xc0015f6d39290353U, 0xbba79e31ba2eeefcU, 0x39225523b9ce24d2U, 0xbb256128bb42adb3U,
  0xb89e2e91bea5c7e0U, 0xb7ff8c24ba93c2d4U, 0xbf6f0b61bee4f171U, 0xbe90ed38bf1f871bU,
  0xb8a365a6bc07d604U, 0x37c89731b9c92fb1U, 0xb94c880e3bcf2592U, 0x39815ed2bb5d37dcU,
  0xbf2c190339080393U, 0x3cb3a8edbcb1bd77U, 0xba89b2443a48348cU, 0x3c2af823ba57c8bbU,
  0xbc5d8c7abe545f25U, 0xb9d0383eb950b3d4U, 0x3b128a15bd2689b9U, 0xbb95f91bbab8716bU,
  0xbefa8f75bf33a27aU, 0x3b85d75bbb00201eU, 0xbef83289bd423460U, 0x35b2836db98ae8a3U,
  0xbf15428fbc8ab35eU, 0xbc41c321b787f7ccU, 0x389890143cbf098aU, 0xba01216ebd2300bdU,
  0x3869c653bc1a47d9U, 0x390e8275bddb7c43U, 0xbedaaf02bc453f60U, 0xbe2b04923b2ae4b7U,
  0xb72ae732ba97875bU, 0xbd8a17983b9bdf10U, 0xba1d2ab13b11cff7U, 0xbfa47d96bb7cf0d6U,
  0xbd71c2dfc030241aU, 0x37593648bc573621U, 0xba39ccddbcf63c57U, 0xb982c5efbae9def4U,
  0xbea366ee3439f5caU, 0x3ab6e79b3f2ecce5U, 0x39472c4c381f3349U, 0x383276223e1167c9U,
  0x39676b6aba1ad89cU, 0xbbb33a02ba79ae4bU, 0xb79e8dffb6a7bd71U, 0xb8956a16bf82de2bU,
  0x397a9ff83f7c58f5U, 0x3dce0a61b7c61fd6U, 0x38bb3a92ba670375U, 0x3e07e28cb954ec63U,
  0x3df48e5638cef137U, 0xbbbdf68337a6528aU, 0xb8c62f8fbe0a2961U, 0xb78c6019ba92c91cU,
  0x37a025bd3ab1cbd9U, 0x3ef91cfcb682f3d4U, 0xbe01396239371d32U, 0x3f9c0dcf400eb904U,
  0xbe2395743c80f485U, 0x398b92ed38934a0bU, 0x3a4a45e83da7ea57U, 0x3f5fbf0b39d1a993U,
  0x3f95e09fb94bb785U, 0x39c76c36ba264fa8U, 0xb9330b30398050e2U, 0xb99247263a3a9542U,
  0x383d5b0c3df6f715U, 0xb6fd46053b185834U, 0xbed5a1a43ea85ef5U, 0xbe298e6bbde5aa18U,
  0x3948f8863b12e2d1U, 0x35445f0db96ad778U, 0x3963ee14bc64a53bU, 0xb7e72902bb9be45cU,
  0xbcec1c2f39ae8fb6U, 0xba67e2ba3aab4327U, 0x3b54c7853919c440U, 0xbe22d534b94d82e6U,
  0x3f013e753e6d9ba1U, 0xb9e3e9c839d1f944U, 0xbab311cd3c9ceab9U, 0xbb21ba1bb6f828f3U,
  0x3b833a153e669f1eU, 0xbb2b783cba026239U, 0x3f2205053dc3a3f0U, 0x365ef3a73c9a6e91U,
  0xbeceaf92bcdeac93U, 0x3a046f893832d8c5U, 0xb934ae0bbbfdfe60U, 0x3aae16623da44910U,
  0xb9685359bb05ff48U, 0xb7889bea3e189484U, 0x3d04e4cf3dbd9163U, 0x3f1d7f7b3a3be5e0U,
  0xb694c89dbab52873U, 0xbd70d14eb813879aU, 0x3b4e3726bb57f370U, 0xbf8e37adba7842c4U,
  0x3e2813aa3fa3e4a8U, 0xb86a484bbd057d37U, 0xb940e15f3ef0769eU, 0x396b9f933a0e63e9U,
  0xbc4897353803e3e7U, 0xbb00c1473f335930U, 0xbab5a0de3a3c33afU, 0x37f254333ed5ac99U,
  0x398a459bb93280abU, 0x3ab5e801383337b5U, 0x37494dafb7a28dffU, 0x392c830b3f01523eU,
  0x39305df83e663bdaU, 0x3c4692fa38bcdb2eU, 0x3904fd6bba7bf1edU, 0xbe42cba9b96a7a91U,
  0x3e9a177638ea8e75U, 0xbd259316b7d800e7U, 0x39846fc33e37a89aU, 0xb5eb115939cd8dc4U,
  0xb625141f3a476805U, 0xbe9afe5638de312dU, 0xbeb77eb9b9c3684cU, 0x3e90fc6f3fec50e7U,
  0xb9ff1032bcc66fc0U, 0xb848025ab9297f52U, 0x38a6b8dbbc4c6fa2U, 0x3ee1ea75393a081dU,
  0x3fe40676ba7ec23fU, 0xba20495e39af5371U, 0xb6f9d8c43909a881U, 0xba0a77e43a031123U,
  0x37a3270ebe0b2a1fU, 0x37295925babb2ac8U, 0xbf9ceabd3dfd7253U, 0x3c90a8b5bd933f01U,
  0xb9d754103b1637aeU, 0xb87b76bdb85f2624U, 0xb98a6ac8bcbccfbdU, 0x3707a0273b005c5cU,
  0x3a00c54d395d14deU, 0xbaa53801bce030b6U, 0x3b0b08693a8d1a9cU, 0xbe40a18a3a0d13d9U,
  0x3eb40150bd9a980cU, 0x391ff26939218fd8U, 0xba53db763b6679ceU, 0xba9766efb8f4143fU,
  0xbbc949153e1dc91bU, 0xbb9668adba7320d8U, 0x3f0b9c783d1e2f27U, 0x36e0798abcb7a2beU,
  0xbd0245943adbf281U, 0x3b312069b8127c03U, 0x3946dd41bc0f8024U, 0xbb2557083cfee803U,
  0xb8ae50ae3a900a98U, 0x38f12f473dd9423aU, 0x3e24c0b0bcaf7891U, 0x3e9e888aba8aadc3U,
  0xb77d21513baa066fU, 0xbaffcdc638dabf88U, 0x3b04d2b3bb54f1a2U, 0xbd50a10eba3ae8c5U,
  0xbc3633f93fd70037U, 0x3838da2c3c9bb222U, 0xba32f1b83d529ff9U, 0x38c0754f3ac1fc4cU,
  0xbd9ec053b6c59ee8U, 0x3a42fb07bf2254fbU, 0x3a39253fb948ea14U, 0xb9551087bde13d64U,
  0xb9841119bad3c234U, 0x395dce97b979e9e3U, 0x382c234d36da7e49U, 0xb87a67043f2e11e2U,
  0xb9f801db3f832f7aU, 0x3d801d75396b9363U, 0xb9960be639f36386U, 0xbfc60296386151daU,
  0x3dbd2ad237b78e17U, 0x3e077db6390570dcU, 0x39fc08b1bedc8b65U, 0xb7e1c1573ba5cfbcU,
  0x38c3c0a4b8a24c0eU, 0xbf3425c9389c09bfU, 0xbf248e8139f1e516U, 0x3f549ccbc0223cf7U,
  0xba82aca23eefcdb2U, 0x39807e1f39e2cfb7U, 0x3972bd603d9a8a36U, 0x3f7b9fdb3a4667acU,
  0xbfac4e283980d3c6U, 0x3ca9967739d6a62dU, 0x397f0710ba646919U, 0xbad11a183ab974d2U,
  0xb826f0d7bfaa7c6dU, 0xb6de2709be08acf4U, 0xc00cde50bf429436U, 0xbf053018bf00517aU,
  0x3a3265d13d5689eaU, 0xb7ee53b9b80a7d20U, 0xb6d9e39cbd7904a0U, 0x39081383393a8e92U,
  0x3f06c61039177bceU, 0xb8c0e3b03c005e9dU, 0xba561f39b89c390dU, 0xbe32b9ba3920b437U,
  0xbe14b7f83eaaa477U, 0x39cfde73374c0ae1U, 0x3a88cf6dbd933bc2U, 0xba1812cebb119712U,
  0xbd818661bf83a1bbU, 0x3c0a569b3ae4455fU, 0xbfd513303e1e2943U, 0x375027e7bd221408U,
  0xbf12e748be1b4ebcU, 0xba7ac2e738a7a6e9U, 0xb90f16db3c93ddd1U, 0x3b261bfdbd81388eU,
  0xba9aeafa3a411c93U, 0xb96d4a8ebe023aaeU, 0xbeba4b4bbc4b2195U, 0x3f6f0f143b3d139cU,
  0xb7abf9333b009b4bU, 0x3e82a6b2393e39a4U, 0xb9f5d6a73c5be8b9U, 0xbf70baea3a2cb96aU,
  0x3e2fa512c0357748U, 0xb8d0912ebbc1c258U, 0x3aa569b53e0013a2U, 0xb9a270acbb82d98bU,
  0xbe9a8083381cb865U, 0x3bcb548a3f95acc8U, 0xb8bab83aba8f6bf0U, 0x394b6f143fc73e20U,
  0xb91a6a7d39ca55e7U, 0xba339608ba9ac72eU, 0x37150d523782de55U, 0xb89ca5d1bf681763U,
  0xba4f14fd3e0b6a81U, 0xbd1773ed38dc9670U, 0xba43bbddba64e716U, 0x402b4a83ba6dc862U,
  0xbe8d5582b70cdda0U, 0xbd542313b88639dfU, 0x39e1c1263d816488U, 0xb5ef25d238f1aac2U,
  0x38be2e08ba8663dfU, 0x3fb65d30b6a4e884U, 0xbebe515739a8872eU, 0x3f0695f63e6b2fb3U,
  0x3f4d4c063c229ce6U, 0x3a724841374ac416U, 0x3ab9c3fbbc57c730U, 0x3e9a874eb92e4ed7U,
  0x3e8bf2a8ba25aa86U, 0x3b8878bfba45aaacU, 0xb939239ab96f1b13U, 0x3ae746c03a448ec0U,
  0x398572debd02aa53U, 0xb68433163eee39c9U, 0x3fad089bbe3187e0U, 0xbe36e6f9bc3d7e15U,
  0xb96b2d723a2658cdU, 0x37a8ed9db9a5834fU, 0x3923186cbb1237d2U, 0x35c15fbc3b8ae740U,
  0x3f1dc588398e2c3aU, 0xbbbc69263d621890U, 0xb9871884ba860faaU, 0x3d31aff3b9edea0bU,
  0x3e342da73ee0c251U, 0x38b1cd5ab7c4d240U, 0xb8ce48f73c953655U, 0xbb0cf4eab8b1c0c1U,
  0xbab700853ea32f59U, 0xbb9d87313ab6b18aU, 0x3f69ce42bb665ceeU, 0x376b4b2dbc7a475dU,
  0x3f927eec3c817265U, 0x3a231b43b915f126U, 0x37ce6575bc8750d0U, 0x39951f6bbb616437U,
  0x39ba0cb3b8410e84U, 0xb9f80a413d984928U, 0x3e394c30bbfcb1e7U, 0x3eb006cbb97919a1U,
  0xb759af7abb199777U, 0x3dacaf103a80cbf5U, 0xba7de08abb85ed55U, 0xbd1d072db998e6bfU,
  0x3d7de3493e6d40fcU, 0x3827fcc73dc12e09U, 0xb98625f2bd57a4bfU, 0x383cd662388290a4U,
  0x39e59a5037e415d9U, 0xbb00f69dbf5d9307U, 0xba979d523a87414eU, 0x39c5d3713edbbee9U,
  0x3984de86b98615a0U, 0x3b0970b33b2d8eceU, 0x35d670df3700cf4dU, 0xb8223f073f1f0ff0U,
  0xb86271acbf0348c8U, 0xbde7378938804b4dU, 0x3981756b3b5451a4U, 0xbf8b4e0dba1fac68U,
  0xbe2d9a91b981bef4U, 0x3c14b75fb892d7f0U, 0xb97eb104be7d2dd7U, 0x366515c0b9ee7434U,
  0x39e92b56b7dbe8a6U, 0xbf8a2ebeb8ef9a74U, 0xbf3a2de738b852cfU, 0xbf1f095ebdbd5385U,
  0xbf7aebe3bd932ef2U, 0xb9a0bba9b9ae09b2U, 0xba3cc6ef3d02f886U, 0xbe8598eab9baa03fU,
  0x3ed1b65abb07476bU, 0xbd5bee62b9f9ecd6U, 0xba5a955e38b929a0U, 0x3c502aabb9a7f99bU,
  0x39bd7362be8099c0U, 0xb81a61423d256569U, 0xc023a2cf3ebd7686U, 0xbf08e28bbe21d9efU,
  0x397400ddbc237db2U, 0x379115353a19582fU, 0xb97095a33c87a4baU, 0xb8d5074c3ba225eeU,
  0xbf837c48b9888247U, 0x3c44e71cbd0dc557U, 0xba052299388b49a9U, 0x3dd400e5b91c2033U,
  0xbeb352f9bf773e5fU, 0x3909984cb974413cU, 0xb82a90edbccb77deU, 0xbb9f3d9f399effccU,
  0xbd0c1691bd504baeU, 0xbb65cc043b474c9eU, 0xbc9133c4bdec40aaU, 0xb70313f33c9822fdU,
  0xbed9d975ba047fcdU, 0xbb8d63e5b6b6c23fU, 0xb8670f143cc9357dU, 0x3bec1017be617fa1U,
  0x398c31493b97cbddU, 0x367f7d47bdb26520U, 0xbe7256fe3c080210U, 0xbea39ad83b3ad6e6U,
  0xb50d7fa3badd42a5U, 0xbe15b44c3b5e4eb9U, 0x3a3026043bc7ec14U, 0xbf0ce6ebba8953a8U,
  0xbe8ddb86bd8777beU, 0x388655e1be475141U, 0x3a1a32223ec521a3U, 0xb962c289baec262fU,
  0xbf026724b70486eeU, 0xbb954815bed1a5d5U, 0xb9f4a115bb5e5bb1U, 0x385a0429be894552U,
  0x3a29bfcfb9d058a9U, 0xbcd232823ab5cd89U, 0x3622014b36836147U, 0xb7d4f55abefa21b6U,
  0xba38367fbd3230edU, 0xbc1ca8f0379baf00U, 0x395c6517bc6d64caU, 0xbee24678399c0622U,
  0x3e9b3e49394bbb27U, 0x3cb9d995b80e8b21U, 0xba0a3a003e5057fbU, 0xb80284803a43684dU,
  0x38532d8a3a9cf64cU, 0xbed4ef8cb86fe830U, 0x3fb8ced0b574568cU, 0x3bf83243bf4dab2dU,
  0xbaa5785c3e027005U, 0xb8dc95aa38a09365U, 0x3a2ed38abc8bc0c2U, 0xbeb2217c3962976aU,
  0xbf32fb9c399e10b1U, 0xbaac2ad63a223502U, 0xb905587a38a89ac8U, 0xbb8620edbaff730dU,
  0x391ff218403a2bb4U, 0xb6a29a083c86285eU, 0x3e3863163fd95a90U, 0x3f276ebb3f313966U,
  0x3a2120ae3cc39bbdU, 0x38914ed1b90df978U, 0x3982017cbbf16dc3U, 0xb81e09673cac65d8U,
  0xbbf6a0f03ae7aff1U, 0xbc249c40bd88cff4U, 0xbb04c96dbb093f52U, 0x3dc0d8e5b75c029aU,
  0xbea39b23be3f47afU, 0x3757d59b395ad925U, 0xbaf286f33d0c18bbU, 0xbb10e636b9f61494U,
  0xbcbefa64bf03eabfU, 0x3c2cf9ef39a90c35U, 0xbeb96a6e3c6a7c7eU, 0x37ac6b08bcdf53cbU,
  0xbd634be43e16bfc7U, 0xb9747ac63723613fU, 0xb911d501baabe1d0U, 0x39b1e9eb3eef2f65U,
  0xb9ba143b3b492834U, 0xb883d6683d095f12U, 0x3eb34e15bca77b1aU, 0x3ced65cc3aaacbc1U,
  0x36afa52c3812638dU, 0x3c3446f7bc5bf74cU, 0xba4146053bbba483U, 0x3fba73f23a7cb17fU,
  0xbe123624bf81b81aU, 0xb708d130ba866464U, 0x39fadd82bbcf5e4bU, 0x39d7b9843bc36e9eU,
  0x3f168b4cb732db52U, 0xbb2f64c5bcb01877U, 0xba42b3a5383b28ceU, 0x3a9f5077bdf33719U,
  0xb9ee1617ba50c450U, 0x39962f5238caf19fU, 0x37b31b73b662e998U, 0xb7c72fd3bf0811dcU,
  0x392491da3d7e76e7U, 0x3c1e4db839ed3c60U, 0xb8589667bbbcac9fU, 0x3f954d653977f48bU,
  0x3da9272439e42c28U, 0x3d5d5eeb38aea83bU, 0x37f61deb3cf83725U, 0xb82f5ac7bb1e5ad4U,
  0xb77cd3eb3aa8881aU, 0x3fcd71ceb81fa8e7U, 0x3f3b38323a715c4aU, 0xbef55df23e201f2cU,
  0x3f2cd7653da608d3U, 0x3857b20bb9dd770aU, 0x3adc15ccbd201b85U, 0xbe95d03a389c2eb6U,
  0xbf2faad739fd6f9eU, 0x3b14d732b947a07cU, 0x387dfe02392100a1U, 0x39265e81bb402202U,
  0x365e6b1a3faa7cfeU, 0x35f5dda93b7a8e1fU, 0x400cdbc73ff69293U, 0x3f12f1483f56d939U,
  0xb8fa994cbaf74e8bU, 0x3554f0b539a238d3U, 0x3650965cbc676e19U, 0xb729269cb94e2f06U,
  0x3ee9eaf7398c11beU, 0xbc042cce3a44518aU, 0xbb044a5a3a6d0da2U, 0x3e880299baac6ba6U,
  0x3edf48803eeb567aU, 0xb94b1bf238828196U, 0xb90643c73bb85846U, 0x3b0e301ab95c6d86U,
  0xbc324dff3ecec447U, 0xbc6aae7d3b292fdaU, 0x3f35065fba950621U, 0x379e756f3b98ebdbU,
  0x3e8e817a3a6dd22fU, 0xbb2037f338e7e7feU, 0xb84809e1bc9fd42cU, 0x3bd797313ef9a012U,
  0xba136ddabab500ceU, 0xb90638863d83da27U, 0x3e9fb5d23b53a866U, 0xbcbc151d3bd97705U,
  0xb6b8482abb9af5afU, 0xbe313aa2bad84cc5U, 0xba9688ad3b9cbe31U, 0x3fa7fe623b4910f6U,
  0xbe0cfa8d3ef2a3a2U, 0xb5b1c45a3d2f66fbU, 0xb9987ffd3d384dc0U, 0x39ada3e6bbb16999U,
  0x3e1eec7fb73d4945U, 0xbb48595d3ec926beU, 0xbbc59121b99cf6a7U, 0x3a40b40ebe8ee63eU,
  0x3a2e63f0ba790436U, 0xb9c6d00c3a0d7573U, 0x35c0c6d8377d98c9U, 0xb86b26f8be947776U,
  0x387c8751bc358aa6U, 0x3c26187bb9228ee9U, 0x38f4f1313a835489U, 0x3e6b282f39b55245U,
  0x3e1531893882ca83U, 0x3c85ccd936c9b769U, 0xb8908d933ddcfccdU, 0x3475e7f33a038118U,
  0xb9fa29903a51ed35U, 0xbdcc701d38551431U, 0xbe9cadc63a4e3591U, 0x3e80f0823fa051a7U,
  0x3bf4bd8438916cacU, 0xb98cd58238ee2c68U, 0xb8b61f213dcf548bU, 0x3dcc0336bada4824U,
  0x3fb19d7db9166da6U, 0x3c71da67b9e6623aU, 0x39b1f1ad39959083U, 0x3a2d5f48b7716e2cU,
  0xb989ae693d906d16U, 0x378729763c12a9d1U, 0xbf671847be44fa4cU, 0xbe151d49bb6999c9U,
  0xba39449d3c4594daU, 0xb789826d39c86e48U, 0x35383a5cbc9abb21U, 0x39151d673a95e3b2U,
  0x3cc82f4b390eb5f0U, 0x397744c4ba0d379aU, 0x390ea6a23a143de2U, 0xbd6d19413a6fc41cU,
  0x3e4afd713d39eb44U, 0xb9115c3137c02df9U, 0xba3e1852baad598fU, 0xbb49820738faa0e2U,
  0xbd38aff03ea685c4U, 0x38c7f6393b3daee2U, 0x3e6c64123cd15b65U, 0xb78ba1e4bc0bc8e2U,
  0x3c83cf3cbba79707U, 0x3b6bc319b8d27ddeU, 0x390f8200bb7f1275U, 0xbad9233f3d509ea0U,
  0xba29e475ba23c59eU, 0xb7eb33313d5a6d86U, 0x3e372995ba6585cdU, 0x3e0e013aba49b464U,
  0xb73ded76ba3ed990U, 0x3d0569973a507e38U, 0xba5104053a1e0f9eU, 0xbf2314cbba8b0fdeU,
  0x3cb0cbe53f94a2a8U, 0xb8258befbd0b6906U, 0xbab59d453eadd1b8U, 0x38415f27bab9d277U,
  0xbba71b35b7e4952aU, 0x3aaf87c9be661463U, 0xbaea8bb73a933c05U, 0xb918a332bdf47cc1U,
  0x3a529777bad513efU, 0x3ae3eddcb9d5dee9U, 0x3708c6ff3768c469U, 0xb882a2f23ef21835U,
  0x39886d0abdaa0339U, 0xba96774338a6015dU, 0xb9ace1c23a4b58feU, 0x408adfc5ba078830U,
  0xbd01b089b756bab7U, 0xbaab3b5637043ebeU, 0xb8f01a743dbe4532U, 0xb6b21e84393754f9U,
  0xb902862eb9ad040dU, 0xbe2ecf673768eb82U, 0x3e07779f393a22fdU, 0xbef6a58abf1ae9e1U,
  0xbcd7e675bb9cef04U, 0xb9fb97f1b6bef933U, 0x3914d6ecb93fc4a2U, 0xbe69bf9239126494U,
  0xbdb0f036b914904cU, 0xba6f9accba9d2dc0U, 0x3880c654b9c0bdd8U, 0xb8a56ab9ba12a8f7U,
  0xb8beba583d8f3183U, 0x36b97694b98b1d11U, 0xbf675d18bdd37a4dU, 0x3e9f38d23b038455U,
  0xb8e88a8abaf8bc6dU, 0x3625989a39b06c1fU, 0xb9a5e3a9bb8d8b58U, 0x37cc083fba375686U,
  0x3baf3e2437b07d4cU, 0x3a3f5ffd3a3dc7e2U, 0xba0288e1babd527eU, 0x3b3aef6aba82804dU,
  0xbe027c313fab3603U, 0xb96ed3d2378c9f8eU, 0x38513f193b602d08U, 0xb9ff04fa3964b94dU,
  0x3b618bd23cae647aU, 0xb9e3c06bb9f2d85dU, 0xbd52cf64bd9118c2U, 0x36dc67b0ba122402U,
  0xbdbfebee3c408538U, 0xba53bc0ab937c23eU, 0x39d3c29c3b4db3bfU, 0x3ac5f0793ccb169bU,
  0x3991b9e038e24152U, 0x390f5cfa3d4b00a9U, 0x3db5fe4dba5fc4f4U, 0xbf00c3eb3aa3bf38U,
  0xb669efd73839a5fbU, 0x3ca66210ba737b3dU, 0x39b2e0f5b9b4e5caU, 0x3dfe5ffeb9d062a9U,
  0xbd187e48bec6aa13U, 0xb732fd073bfe10aaU, 0x3a10328abd914a87U, 0x38e7cb5338876f8fU,
  0x3b66435b3701f8c5U, 0x3a73db76be1c8f4fU, 0x3847ee00b92f3f00U, 0xb9149171be442363U,
  0xb990d7dd3996fc34U, 0x3b9c9a82b9ee1e22U, 0x36db1181b6f7ba49U, 0xb80ab6b9bbb1ad48U,
  0xb9df982f3ff2de00U, 0x3dd6fb8b37d1895dU, 0xb8a522613c057b8cU, 0x3ce38066392ee031U,
  0x3d3b9d7b39832237U, 0x3ca04277b8842aa8U, 0x386fdc92bec3c0b1U, 0x37fc3d283c31467eU,
  0x38d7313f3a5f1ec8U, 0xbd7bb995b8023642U, 0x3def9bdfb99710feU, 0x3f7d4b8dbf44ebf1U,
  0xbecd501f3eb87d41U, 0x39fe4d69b9ea108eU, 0x3a7fa2633dec058fU, 0x3f50466f3a738353U,
  0xbe86a7fd392c2dffU, 0x3c8ea1263a1dcfd8U, 0x3ae3754a3925109aU, 0xbb20dd01b79a9777U,
  0xb8308579be57e40bU, 0x38419221bbe04bf6U, 0xbdbf97e9bf00434aU, 0xbe6f14cabdaba7c8U,
  0xb915856d3bc6e9d4U, 0xb9349934b99269d0U, 0x39aaf5e1bd114b8cU, 0x39f658bd3a2abdf8U,
  0x3ea03a6e39862d52U, 0x3cac6d603acd686eU, 0x3ad3d17039301010U, 0xbea1154839a91b36U,
  0xbd1f14073d1ecd64U, 0xb897b79b38acabd7U, 0x3a6cdb1c3ca2aab2U, 0xbb5e6878bb0a49e9U,
  0xbdf4019fbeaad974U, 0x3c938144bb337d17U, 0xbf083ecd3e321489U, 0x363ddb313d787c07U,
  0xbf010711bdcdbfbbU, 0x3c3f621a36fef45bU, 0x396641b7bd20dd9dU, 0xbc7c14f8be7a6fedU,
  0xb9e60bc03bf6816bU, 0xb8723b48bdab9e41U, 0xbdf9f6df3d2fcd31U, 0x3f1a83b23a436746U,
  0xb7b76af4baa3f56fU, 0xbdb82fbf3c3df6d2U, 0xbac141cabb25086cU, 0x3f766cabb8432981U,
  0x3d828e11bf690038U, 0x38b05579bc638b45U, 0x39fb6252be7af855U, 0x3999f45bbc40fd97U,
  0xbe2c45a3b79e1932U, 0x3c1ab00a3f59b6f2U, 0xbab33863baf23210U, 0xb999b0a240059984U,
  0xb99c3bec3818c825U, 0x3b3badb8387ad1a3U, 0x3824319736431ab6U, 0xb7e68036bd1f6b29U,
  0x3969c7353e819752U, 0x3ceec06fb83861a7U, 0x39b895c1bbadd101U, 0xbfa30754b81e1091U,
  0x3ec8d63938785fcdU, 0xbd25bf39b73c6b99U, 0xb9c9fe4b3e151e7fU, 0xb8674259b8faeb4fU,
  0xb9462276b8aa4538U, 0xbf12928737f0912fU, 0x3f5becdfb8d5a2adU, 0xbe896208be8eaa55U,
  0xbb0650a93d3647b6U, 0x39401c2a39b76b28U, 0x3ab5fc253b02181aU, 0xbf081e3d39aed413U,
  0xbf741c75ba538a6dU, 0xbc7b91353a9da0e3U, 0x399c02e0390516e5U, 0xbaf5bcc5babc4ed3U,
  0x396d2cd33ff829bcU, 0xb82516b1394f384bU, 0xbf9a7dfd3fe5ade0U, 0x3dc4f9c73e621045U,
  0x392377363c520fd5U, 0x37374134b90de347U, 0xb5bd2f53ba7b8848U, 0xb91669283c4ea249U,
  0xbc484bd63879e568U, 0xbc7f249fbddd64d7U, 0xbaa1c6c53a7a5ed9U, 0x3e0bc8ac3a3600e8U,
  0xbeb32336bea3e3a8U, 0x37e32fecb98df907U, 0xbb0cd6ff3bcbde34U, 0x399b555c39bad9a3U,
  0x3d79bd6abf17a7a7U, 0x3befa5d43ba71a95U, 0xbf027c3ebbdb54a4U, 0xb718ab2c3a80b192U,
  0xbd4ac2f83cfc53d3U, 0xbb8547d1b8b03b4aU, 0xb8fd0efb3cf45c61U, 0x3b8283433fa18b68U,
  0xb96ebb093b361dd8U, 0x390cbb433e081d90U, 0x3ed79048bc84e27eU, 0x3c87dd783bef013eU,
  0xb7a7f1503a8ee1e6U, 0xb8f58f02bb85c8abU, 0xbae117c1bb703949U, 0x3f8c001b3a972155U,
  0xbd871391bfba809eU, 0xb9002cc1bd0a557aU, 0xb87ff3ddbd6c4fd3U, 0xb8a4eb54b8aef6cdU,
  0x3f8314d3b7734c9bU, 0xbad6892cbc09bbe5U, 0x3a386a17ba57d67cU, 0x39cf4147be2b1fb3U,
  0x3a1c0f523a1b854cU, 0xb99803a03a10770cU, 0xb838ca6bb68b51a8U, 0x3843e6c9befd32abU,
  0x3a43458d3e85ef0bU, 0x3d0175e9b91a9a7aU, 0x39aa63993ad92b7fU, 0xbf607ed0b89b9d8bU,
  0x3d9ddbf3b702242eU, 0x3ca58827388e31deU, 0xb9b4e200bef70d04U, 0xb74d1ff1ba32ffb6U,
  0x394c9feab99469f1U, 0xbf44704cb89c1242U, 0xbecf0ae6b98dd276U, 0x3e97b0e5c0244527U,
  0xbeb997c63d618f6fU, 0x3a3f55d1ba9a3aa3U, 0xb8f95440bad59401U, 0x3e0720b7b8bdd85fU,
  0xc01ca549ba7ba00bU, 0x3cbf6e53ba68e502U, 0x39f6ac76b841d36cU, 0xba8e1b67b9be2a38U,
  0xb9662ec33f8a47d3U, 0x37e980513be200bfU, 0xbf4d88eb3de23269U, 0x3dacec2dbb44d195U,
  0x39d9d5173ab69b2eU, 0x3709906239b2567fU, 0xb870ac903ba86f84U, 0x38b839263b6455c7U,
  0x3c4edd2139b01f54U, 0x3960885cbd72ad52U, 0xbb0c6e7d39b57a0bU, 0xbe302c04ba0f4f5bU,
  0xbaff908d3e1d8802U, 0x39792c94388c858bU, 0x393477c3bcb31007U, 0x3b8238d6b8bd0cceU,
  0x3b7887b8bf6cc17bU, 0x3b949605ba9be6bcU, 0xbf0166b53d6e4646U, 0x374d1867bd597599U,
  0xbf1df198bd18d2adU, 0xbb39ac73389e4563U, 0xb84702f93c0d1009U, 0x3bab16d63c5a967bU,
  0xbad485b53b20fd6fU, 0xb886f1fcbd471074U, 0xbea493c8ba4a7cc0U, 0xbd96e4423a4ee8ccU,
  0xb6b7df7ebb377fddU, 0xbde33a2f3c0cf0a8U, 0xba3f04bdb9df3d85U, 0x3f63886539a327b9U,
  0x3d3f4c41c055f04eU, 0x372aaffcbe2ed6ebU, 0xba3f41bcbdf516a6U, 0x373b9fb33b7659f8U,
  0x3d4158e935464c77U, 0x3a25b6e43e8883f3U, 0x3b86519e3a3894c5U, 0x3a3eacd03ed53816U,
  0xb962ecebbaacb9b5U, 0xbbdb7fbfba8224a8U, 0xb7237bba372d7157U, 0xb7df7f83bfd246f1U,
  0x3a9c468cbee057f8U, 0x3d147a78b5ab7c2dU, 0xb96e2f6d3a2800a2U, 0xbfb5813939dd5604U,
  0x3e26ec55b72cd03cU, 0x3c9617d737bc8d97U, 0xb909b73dbe43c772U, 0xb8253c82b988a699U,
  0xb9ff814eb9069f79U, 0xbfde3957b794a092U, 0x3f3ad592ba0576c5U, 0xbe97833abe1561ffU,
  0xbe5de4003e8c431cU, 0x3a3f955b3a02c187U, 0xb8e79494bac93c09U, 0xbdfad8fc39d64f95U,
  0xbef39f52b8bb35acU, 0xbac9663fb8ef40d9U, 0xba819b0d3954af59U, 0x39c4b1243a3f0298U,
  0xb9ed8c163f1ef946U, 0xb7743e743ba4526eU, 0xc045bf5d3f2670eeU, 0x3d0c6ac13e747246U,
  0xb9c89280bc727f2dU, 0xb68f05b2b9cc5428U, 0x3899e04c3c71aafeU, 0xb7c013baba134202U,
  0xbe28e19d38c1763dU, 0x3ae2d2eebd378be9U, 0x39c07bb736152566U, 0xbda0955a397f30adU,
  0xbe391156bee18c92U, 0x382302fab8163b4bU, 0x391e75db3bb57056U, 0x39ac9cde399f3b63U,
  0xbc3604ddbf3180c0U, 0x3b44413bba968f6aU, 0xbe127cb93db232ddU, 0x36ba03013d1912baU,
  0xbf833933bc1e643cU, 0xb7fb10e5b8d34a75U, 0x37f134613ba0197fU, 0xbaeb571c3f1ada03U,
  0x3997605dba9beb1cU, 0x391eabda3bb80a76U, 0xbe3b3eb2bbc03692U, 0xbd966d40bac55295U,
  0xb75dddf0ba8d7a36U, 0xbf01a7443a973d7aU, 0x3a674fbf3ba8fd42U, 0x3ef2bb6eba2d211eU,
  0x3b8448e7bec197e7U, 0xb7398576be34c9a2U, 0x39bcc158bd0e449fU, 0x39434f4cbb384a24U,
  0x3d3565d9b848add3U, 0xbb08777c3e4c5ca2U, 0xbae8404fb9ccd9a6U, 0x38fa5ea6bead7b6bU,
  0x39a484c83a0982d1U, 0xbb005367b94a74a5U, 0x3846950cb7533015U, 0xb672d4eabee2de4fU,
  0xb8a92e063e85ae03U, 0xbda6c199b8598bb2U, 0x393e7720b9a6eac2U, 0x3fcdade2383eb9e4U,
  0xbdb2daa13912b86cU, 0xbc9c1a2838c3babdU, 0x397c49d73e5f61e5U, 0xb751f6fbba1f9996U,
  0xb96c607237a2fdf2U, 0x402a3542b834e03fU, 0xbde798da39b3acfdU, 0xbf2d455ebef64d96U,
  0x3f49b2aabe47f715U, 0xb8ea5be738843f82U, 0x36684638bbfc668aU, 0xbe27319b396df219U,
  0xbee600ac39be830bU, 0x3bd78b083846d71dU, 0xb902a2cfb9a48d69U, 0xba7a646dba88415fU,
  0xb8c9831cbef4d0e4U, 0x370a11b4bc6c5457U, 0x400263bbbe38fd43U, 0x3ed332003e0db614U,
  0x3745467c3c8b85beU, 0xb6b6b89fb948bdeeU, 0xb8b3d1c73cc0e215U, 0xb933851c3b2ff6b5U,
  0x3ddff5263a29f5c2U, 0xb9f8b571ba9ea004U, 0xba8d3c84b9099938U, 0x3efbbfcd38b9f09dU,
  0x3f3b992fbeba6db7U, 0xb91cbe283914031eU, 0xb9a9a39a3b630c95U, 0x3b1bb2d439cb97c1U,
  0x3a7cafda3e1cd787U, 0xbc2741973ba7b345U, 0x3f3dda2cbdb8b37eU, 0x37ee8fffbd03e184U,
  0x3db1c3073af8161eU, 0xbaacbb5db8adb6e8U, 0xb830a746bbb49248U, 0x3b6d5b25be11eb38U,
  0xb9bed6adbb8153cfU, 0x38f5c1b1bc1449e3U, 0x3eb866473c2573caU, 0xbe87c5fa3a3ea6c9U,
  0x37a3bd29bb57799fU, 0x3e5816e5ba3349cdU, 0xbaf47d0739a5146aU, 0x3e830a3d39f30060U,
  0xbdbb36ffbf45da83U, 0x37c909083f1d1a54U, 0xb9e20e9bbdea80afU, 0x39b070723b70ab91U,
  0xbc239aa3377de705U, 0xba1f9efabe102e6fU, 0x3a834ca73a9e0048U, 0xb8edaf60beb70816U,
  0xb99bb420b98fe58bU, 0x3bb367da3a3887b1U, 0xb87bcff1b7672a94U, 0xb6bfda343d27c8f8U,
  0x3b16a53d3f74e990U, 0x3ddbe58139b56ba7U, 0x39b1c285bb28cf86U, 0xbd05ccd03a31534bU,
  0x3dba043538820e70U, 0x3de45788b8304f76U, 0x3a84b806bf0463d7U, 0x355f719e3be9f16eU,
  0xb93bc959b8c9d094U, 0xbcbe8e6038ba5fc3U, 0x3d930176380d9599U, 0x3f991666bfbda37eU,
  0xbdf64a643e63b9d3U, 0xb91561d7395c504eU, 0x3ab032813d98bfabU, 0x3f49d2e839862f67U,
  0xc004bb753a6308f6U, 0x3b6b8a23b9187f83U, 0x39df4f39b86759ffU, 0x3a78b4bdbad8a6d7U,
  0xb9bf3c66bd5e3cb3U, 0xb7f1dde2ba19303eU, 0xbe03d9e1bf2aa120U, 0xbe5ebb73bd4a8398U,
  0x39202e60bc000baeU, 0xb879fb7fb9583e22U, 0x38ce4d813a4af977U, 0xb87605ae3b750b02U,
  0x3f26bd96398cdb6cU, 0x3b4ff3ce3cc58fc7U, 0x38e8b5e53a7aea6dU, 0xbe7d9aedbad39bd5U,
  0xbf3463fb3dbd6096U, 0xb9f4f816b84aafb1U, 0x3b6a8b533aa8b6eeU, 0xba58cc7e3a1d4409U,
  0x3b89043ebf099f95U, 0x3c56c8723bcdcdfbU, 0xbfbba1ef3e7d442aU, 0x375b79273cc73a10U,
  0xbe1dacbabddbe7a2U, 0x3b248fc2b9374a6dU, 0xb649ff913b85cdb6U, 0xbbda282fbe84e6b8U,
  0x393c59fa3a55da17U, 0x38632b4dbd2aee12U, 0xbefe7d7a3b2a7b68U, 0x3f56373f36e828a7U,
  0x371b168f3bde24cdU, 0xbd1d9aaf3ba2cbe7U, 0xba3a909b3b37760cU, 0xbf4a11f9ba256159U,
  0x3e8db76fbf35aed0U, 0xb7b391dbbc038bd4U, 0xba14db85bf412396U, 0x3981f0ecbbbf0c08U,
  0x3d1430b6375112aeU, 0x3b0f00aa3f404f61U, 0x39e09f9eba993f61U, 0x3b01df393fe6489dU,
  0xb88dbf49b9a01d00U, 0x3b6e114c3a475eefU, 0xb78f2cfb3752446aU, 0xb8aa1056bf388210U,
  0x398ee6693d697285U, 0x3af46d41383a01a9U, 0xb820378a38896803U, 0xbed78f323a81e7a2U,
  0xbeae3b6237a30759U, 0xbbbc3678379be2e7U, 0xb89c5be63e4218eaU, 0x3679d2deb9507c3bU,
  0x38156619ba2abc35U, 0xbfe01e68b71b938bU, 0xbe0802ac38968eebU, 0x3d393759be091350U,
  0x3f916022be9978caU, 0xb9269e5eb9ae7825U, 0xb6a154f63c58b201U, 0xbc64eab437c02b63U,
  0x3c54398eba6ef80dU, 0xba6d7420b9bd14f7U, 0x399a5e8039a42493U, 0x3a658748392ddcb0U,
  0x397eb862bef72c9aU, 0xb63c480a3ae862f5U, 0xbfd8812bbf611c4bU, 0xbf946461bd2061aaU,
  0xba1b6f033aa9c618U, 0xb6d9d3d5b8f5f922U, 0xb90a00343ac3db38U, 0x38b8c3e93a7a7467U,
  0x3f993df1384a8b98U, 0xbb114a8f3e3265a2U, 0x3a33e66e3a4d497eU, 0x3d288b3eb6483819U,
  0x3f37849f3f42a386U, 0x369a880438849df4U, 0x3912445239c30674U, 0x3affe3b638b9e546U,
  0x3f80e29abea79f40U, 0x3b746a36b85af26bU, 0xbea4a6d5bc93015fU, 0x3634938bbb0065b2U,
  0xbcd675d9bda7166aU, 0xb9323144b85a3a78U, 0xb7dc3257391f23a9U, 0x3ab498a7390825f4U,
  0x3932f1c1b94d7e20U, 0xb6955b73be0dede8U, 0xbee4fd883a820bafU, 0xbe01d09c39fceb5fU,
  0xb6c85e9e3aba0540U, 0x3f1530a9baaeab46U, 0xb8db9c8cbacc63beU, 0xbf420c0b3b106df4U,
  0x3e0f9fcabeedd8dcU, 0xb784e97a37f3dfc5U, 0xb8adc87abeb51a3cU, 0xb93784103a00809eU,
  0xbc8eb18db82d124cU, 0xba31fc8f3fe18ef1U, 0x39cc1adbba617b11U, 0xb583f4573ced2432U,
  0xb953c56cba1af2fdU, 0x3acc3fab395651daU, 0xb820e51537aff234U, 0xb8841d2fbe123d0dU,
  0x3a3a5b61beea047fU, 0x3cb2cf6d367266baU, 0x3916f236bbd1bd1dU, 0xbe5022903879943eU,
  0x3e8a0e79b997a4b2U, 0xbcbea705b8371431U, 0x39d78ebf3e093733U, 0xb7839309ba79d829U,
  0x3860a6ec38ea951fU, 0xbf22acd0394816c6U, 0x3f67ad64b95ebac9U, 0xbdd626acbf37b50aU,
  0x3c720e0e3e571b58U, 0x39a53aedb9420370U, 0xb9b7a721bb48553bU, 0xbd9cfe5eba054ba5U,
  0xbeff8751ba7aae97U, 0x3d0c171fbab224a3U, 0xb99057f3b992c2f0U, 0x3b95cf50ba8ed727U,
  0x399014ad3fabb339U, 0x38687a7ebc59667dU, 0xbc9ff2b03fd64756U, 0x3f30610f3f02fd46U,
  0x39cd554abb46ba84U, 0x37a8324a385cc1aeU, 0x36c8cbe13ca54396U, 0xb8e15c283b9f5ce3U,
  0xbbcf0c2cb4f186abU, 0xba421a14bcba7873U, 0x3a8dcd553937fa14U, 0x3ce1096c3a3553c7U,
  0xbe3bddf9bebb4e42U, 0xb9051f78b7c48a6bU, 0xbb90c76a3c9d4384U, 0xbac062db3ae270edU,
  0xbba338babee87eb5U, 0x3bb68e753c066712U, 0xbd9b1f103c1b34c2U, 0x371abde03baafa28U,
  0x3dcbd9753c891345U, 0xb9facbf438098a24U, 0xb7a52cc13be93573U, 0xbb9ac28d3f9285f2U,
  0x38b8cd533b1b9169U, 0x3a297a213c99dcceU, 0x3e60a0643c485c0aU, 0xbf7f1ae4b9daf6c4U,
  0x36b49d663b61c484U, 0x3b8b24febb85639aU, 0x3b28d1283bd39d4eU, 0x3f879af7b994a2aeU,
  0xbe2f116abeab5dccU, 0xb7d7a5883c89a9fbU, 0xba01e904bd0b3701U, 0xb94d54a63b2829caU,
  0x3f47fc2d364aaf7eU, 0xba63f6333d1b07b8U, 0x3aec5663b9385ab4U, 0x39039f8ebeb12c55U,
  0xb9c9291d3769d453U, 0x3b0187beb99b385fU, 0x3757894438489daeU, 0xb786536ebe93f469U,
  0xb9f23b7cbd2a1d7cU, 0xbbcd1c9e3a2d475eU, 0xb9c83f67bb18eae3U, 0x3fdb56ec3965d3ccU,
  0xbe855f66b86fd491U, 0x3ba748ab374c0f08U, 0x3a95d2753e218608U, 0x37345711bb27844eU,
  0x39dad7fbba779a19U, 0x3fd3bcd2b95d6cb0U, 0xbe9b2915b95548b9U, 0xbe6ef9fbbef495cdU,
  0x3d2341f4be1b121eU, 0x3a09cff3b7632ca6U, 0x3a5c4958bcc27a72U, 0x3e7727a938cf6915U,
  0xbe7839a0b8b510b5U, 0xbd041cfaba3d4ca1U, 0xba3e807db9baa35eU, 0x39243f943929fe75U,
  0xba2040643eb04d5aU, 0x3842bacd3a33e013U, 0x3ec31f4dbd7429c5U, 0x3f206e00bd34de96U,
  0x398601c53c1f0b0bU, 0x388b44b739385126U, 0xb8c9d2b7ba7dd4c7U, 0xb6e1839f3c03aa71U,
  0xbea57dc73aeee326U, 0x3887ecdb3c25d199U, 0x3a86e252ba04de03U, 0x3e00134439b22d59U,
  0x3f28ca73be3cb746U, 0xb9a23f563847697eU, 0x3b65c7bd3c01d5c8U, 0x3a8025663b200861U,
  0x3aac3b483e975e74U, 0xbc4d02773bebe0f3U, 0xbe329f3abc8aad15U, 0x37874d0c3caa3fe7U,
  0x3f0cb4263c4fd097U, 0x39e2e617b83b6ac2U, 0x37157675bb5aa446U, 0x3c60a72fbe608e58U,
  0xbad35251bb1ec7f2U, 0xb736bc003c43dcb8U, 0x3e10d16ebbf81757U, 0xbdc06de439fc05d9U,
  0x37b705c03a919535U, 0xbea3af67ba4366d8U, 0xb7a676823afac072U, 0xbe312572ba17105dU,
  0x3d096d35bed3e310U, 0x389db9b63da57c77U, 0x392d5e77be1ee441U, 0xb97a0b3abacacf82U,
  0xbd73c442b685b9d3U, 0xba2bf89dbe2a6fe4U, 0xba8615d539eadeafU, 0x3a07a6693ca2c8c6U,
  0x389a8d0fb9f8aa6fU, 0x3a6f040fb92415caU, 0x3705e227b72aeaebU, 0x389ad250bd9815adU,
  0xb8e5442cbd72de8eU, 0x3c38a2b837b6786cU, 0xb8bf179d3ab98583U, 0xbea9fbde382bd555U,
  0xbd87d121b6e3c1d3U, 0x3c4577b5363ba064U, 0xb81c580b3e1d066dU, 0x36e8a056ba205bd1U,
  0xb8fd7e3d3ac34088U, 0xbd153e9ab79afabaU, 0x3d182d62b802de14U, 0x3d8cc5b03cd1be83U,
  0xbe696b633a9ae4c5U, 0x37f446f038b2a4faU, 0x38b58d8c3b06f8bcU, 0x3daaf8ca38f3f0d7U,
  0x3d8e4f65ba9adc91U, 0xb881da273898c3a6U, 0xb7c9242139714a54U, 0xb766fefe3adc67ecU,
  0x38ab55f3bd1285ecU, 0xb71e2cc63e1e149fU, 0xbe8845b1bde0abb9U, 0xbd199eb93c290004U,
  0x39d12fbc3a04f9aaU, 0x3608109db80cc9b1U, 0xb2d21aafb9f9dbadU, 0xb955f3883aad3c9bU,
  0xbea708e9390df1cdU, 0xba26f1c33c7891c3U, 0xbae34be3ba0d5262U, 0x3bd79917393afdc0U,
  0x3d3396d43f81e32dU, 0xb9515ff4b7822cc6U, 0xb98caa66ba8b898fU, 0xb9b1ee233825884fU,
  0x3a6c12623bf17f1aU, 0xba130b583a85b632U, 0xbd8b05513c2d4af1U, 0xb59451a6baed735fU,
  0x3f203ebebad34ccfU, 0xb9abf107b889d62bU, 0xb7a41ce93915f52bU, 0xba64231a3ca76b33U,
  0xb836d716b9701afcU, 0xb792d274bc019d04U, 0xb9b9c08dba9dce62U, 0x3e2785efbb196e8fU,
  0xb670b30eba75fe34U, 0x3c1585f6b896be17U, 0xb91d09e039d6a507U, 0xbd98b4ee394b65aaU,
  0xbbcb4f293de48de7U, 0x3827c28f39d54b9aU, 0xb78392f73ccadfe6U, 0xb82ad17038a3158eU,
  0x3bace637b6924b9aU, 0x39e038823ec2f8b9U, 0x380998683998601fU, 0xb8758d58bd859939U,
  0xb78c1782ba7a8c82U, 0x399abd57398af802U, 0x36d9b2cdb74315fcU, 0xb5df9d05bb347a57U,
  0xba2ac74e3f94ebbdU, 0x3d4d6d9fba272261U, 0xb93151e63a1cb043U, 0xbe28c383ba0d03ebU,
  0x3da7d62f36a974a0U, 0x3dae257d37f7ba75U, 0xbae09ec1bdbd29d6U, 0xb729fbeb3ba35bb3U,
  0x38a105bf3a19f916U, 0x3eccd9cd399b49c0U, 0xbf083bd937964f6fU, 0x3f41e3b4bf9bf6adU,
  0x3cc77a053e6a8ae2U, 0x3a58b87039adfbecU, 0x3a1c55aa3d471538U, 0x3f41622fb75154f6U,
  0xbecda5a339bbfe57U, 0x3d24e9b43a4e3af0U, 0xba8a4c9339c88ee8U, 0xb9e6b19c3a821196U,
  0x3832fac3bda66f00U, 0x373127e03d26f603U, 0xbe3ffd903e26ef15U, 0x3c990af2bd660a8bU,
  0x39e4a80cba95a886U, 0xb973d48bb72a6af8U, 0xb8eda6893c9a4cdbU, 0x39555bedbc829544U,
  0x3f0c5fcdba265db5U, 0x3c0a71763d14c2d7U, 0xbade7a33ba20b62fU, 0xbe45663bb8851597U,
  0xbe9fd1fe3e802b5dU, 0x3915dfaeb92b934cU, 0xba2b20403c4b4cd3U, 0xbc6ae5debac9b61eU,
  0xbdb1ce0bbf1d5cb3U, 0x3ba69146ba17a624U, 0xbf9aedbb3e0f842dU, 0x37305e1a3d10efb1U,
  0xbe574670be0c59edU, 0x3c0ee3ce38ce7cc3U, 0x39667dbc3d06d0b2U, 0xba01f0b8be5f4660U,
  0xb9c22da5b9d2f675U, 0xb98d8babbdd9ccdbU, 0xbec07be13de88a47U, 0x3f42ab20bb155665U,
  0xb70778603b123716U, 0xbcab16e6bb941e78U, 0x3ba2ab67bb5d2b9cU, 0x3eb579e9bb04d262U,
  0x3d334e4dbf66e6ddU, 0xb8a0884dbc0c4a64U, 0x38b58d083d358b2aU, 0x37b795d53a6e3910U,
  0xbdf5e572b84b9982U, 0xbae5466d3ef9563aU, 0x3b999526ba386c1eU, 0xb9d671823fd775aeU,
  0xba45ab65bac58afdU, 0x3bbc4b0aba1d3a86U, 0xb86d73f836d72370U, 0xb82170e7bec06ecbU,
  0xbaac95b1be9d2952U, 0xbd696139b7d794e5U, 0x39562f2dbba8ec60U, 0x3fdc4da3377d3497U,
  0xbebe61c339bda193U, 0x3d0e57ba383cb1b1U, 0x385c29b53e76d1c3U, 0x376cf627bb05490eU,
  0x38959ee039da21f6U, 0x4044313fb8db2d08U, 0xbfb25563b919fe5eU, 0xbe758467bd457297U,
  0x3f7d34d4bc9b005dU, 0x3a058a5bba283788U, 0x396dd4823d68047eU, 0xbe055f6039aabfa6U,
  0x3d2d72ee396323d7U, 0x3cd6d93d3a9ed4fdU, 0xb90e72ccb9d6408cU, 0xbc467ad33a25711cU,
  0xb945beb1be960187U, 0xb6a365073da970e9U, 0x3fc9f27ebecac2feU, 0x3e4b69143c405e35U,
  0x39df535a3cb7d6b0U, 0x388119f1b72f730cU, 0x3993f105bcce44c1U, 0xb7bffde83c9f43feU,
  0xbe04a989393949ecU, 0xbcc5355d3db722a9U, 0x394bbc193a00aba3U, 0x3e05282fb8a8f5b5U,
  0x3f04ee04be0818a5U, 0xb9b3fb5039c69883U, 0x3af363cd3c8eb48cU, 0x3c33688b3b29080fU,
  0x3c42d5723fa896e0U, 0xbcb785f13c116d77U, 0x3eeec242bcfdb0faU, 0xb72f3c38bd5c18f4U,
  0x40011a123b3d925dU, 0x3bdb9946b78e186eU, 0x3831fad1bcf56ca6U, 0x3aa5594ebea8b64dU,
  0xba067ad6bb656516U, 0xb91a8cd53c0a93eeU, 0x3dac93cc3c797e3cU, 0xbed92c003b527bfbU,
  0xb691b2dbbb38f903U, 0xbdcb2ae3bad0314aU, 0x3ac67a9e3cab67e3U, 0xbe81c2a03a2bca67U,
  0x3ca5952f3e05b4b3U, 0x38a544363e8ffa0fU, 0x39e4b42a3d259e2dU, 0xb926bfc73bbadb97U,
  0xbe78cc4f36f9f6ebU, 0xbb67ccbbbf09a6acU, 0xbb86db063b52501eU, 0x3ad5de2b3e092b0bU,
  0xb9603856b9210a78U, 0x3b2a92f33a811090U, 0xb86cb484b70d9c80U, 0x372013743e1d4b2eU,
  0xb93b9cef3f2a4960U, 0x3e57647239428b48U, 0x3a2ccd043b070502U, 0xbf9c0ce9b9bd653cU,
  0x3e59e8edb6525d51U, 0x3c2394f6b8870158U, 0x39be2a1abdc0296eU, 0x377602f2baa449daU,
  0xb813415d3a90be74U, 0xbee4f89b367e083bU, 0xbd9e014e3840a7aeU, 0x3fa483384021d1c9U,
  0xbd0d44313d930d1fU, 0x39f7a2483a4bd460U, 0x3ac77c6b3d8d039aU, 0x3f8ec98739af57d8U,
  0x3fa624393aeb1876U, 0x3d1af6a2b8ea72fdU, 0x385c8b94b83ae9a0U, 0xb908863a396e6dbaU,
  0xb9d513edbe82de15U, 0x376a44f03ca87045U, 0xbf9b7603bf06bdbcU, 0xbd99b694bd6912f4U,
  0x39bde25b3bd2793dU, 0xb8454e71b8712a00U, 0x394418c2bc883cfcU, 0x385d7d9cbb593cf1U,
  0x3c4bceb9bb25e6dfU, 0xbbd82b7ebcabaee3U, 0x3aac5b083a6596bcU, 0xbee1e1cbbada81b6U,
  0xbde9e0c43cc94eafU, 0x39138a7a39998984U, 0xb92d2ba83d4616c4U, 0xbba3473ebb0a5045U,
  0xbe08ffbb3f36f3a5U, 0xbcee50f3bb5a1dedU, 0x3e1e9ffb3e57a05fU, 0xb7839fe63d8ea96dU,
  0xbe971848bd50392dU, 0x3bf156e9380914a8U, 0xb9d1f1d1bcbf3a82U, 0xb98b9d0bbe04dec9U,
  0xb989004cb9eb350aU, 0xb94ff8a63dba8d29U, 0x3d1ae6923cc31d02U, 0x3f606e6cba7bfa15U,
  0xb69954383bb9a16aU, 0xbdf1de003b21233bU, 0x3985cc06bb1e7ad8U, 0xbefb4bfdb9383f76U,
  0x3e4dab0540098ad6U, 0xb81241cdbccc9946U, 0x3808ba663e523381U, 0xb9ca51e9bb9bad0cU,
  0x3d9e750db768fc6bU, 0x3af927b73f2566d0U, 0xbb454d1fba7ba809U, 0xb703159b3f699553U,
  0xb9bdcf713b1db4f2U, 0x3ce4145f3735a00bU, 0xb7c5ba4f37b4d56dU, 0xb4b0c62e3f400f4bU,
  0xbb1f28843c81dbd8U, 0x3bb3931c38d2330aU, 0x37f45fb83b322b2fU, 0x3fd00759ba1f8c71U,
  0xbe4d972cb798ea45U, 0x3d77c5f8370446eeU, 0xb9856d9c3ca4b18eU, 0xb7e602cdb9841957U,
  0xba068f82393ed329U, 0x4007227b38402379U, 0xbeb1b8afb91fa455U, 0xbe52d3eb3f323931U,
  0xbccf8b45bd530101U, 0x3904180f39916405U, 0x3a1cb3cc3cb1457aU, 0x3de028a13abc8098U,
  0x3e99b7e2b9c24721U, 0xba30bdc33a0bb1f8U, 0xba0aabf2380035f8U, 0xbb4defb43a0d22baU,
  0xb90db8b0bd8de1bfU, 0xb82680723dde1971U, 0x4029c29a3ea56634U, 0x3e89e0e63dc615daU,
  0x3a3c154c3c9764c7U, 0xb70ef07e3986b391U, 0xb8136d653c6dbaeaU, 0x372aa0753b9027ccU,
  0xbe0de49a3640826eU, 0xbb820a98bc951446U, 0xb7b9c5c1b9a617d4U, 0x3d8de2533a23cdb8U,
  0x3eff4638be87efeeU, 0x3903e290b6f684acU, 0x3b2114823c8081caU, 0x3b3c280bb8ebed7bU,
  0x3b9f0c983f91a499U, 0xbc60b5753be482c7U, 0x3f198186bc1cfaa3U, 0xb7c4304c3b9bfa4dU,
  0x3d0b9fa93c0bcfcaU, 0x39b3d666380b4850U, 0xb828635cbb11f825U, 0x3af532653dd0c6edU,
  0x395c3ed8bb853000U, 0x3888e675bc6cbd91U, 0x3e1b84df3b76c9f1U, 0xbd48a8353abcf515U,
  0xb7a4bb05bbdd8a2dU, 0xbea39a89bac79528U, 0xbae260b63aab5449U, 0x3e98f3b93a1e8299U,
  0x3c5084da3ea25180U, 0xb71a41123eae4d53U, 0xb80043063d972af0U, 0x390530a73ba89954U,
  0x3d007efab639995cU, 0x38b1ede4be8ef48cU, 0xba7339993aade9ccU, 0x3a34aa0e3c36a489U,
  0xb6aba71839c4027aU, 0x3bb33170388301afU, 0x365ef6a23740b99dU, 0xb8a24adb3f0aaf2bU,
  0x39be09d4bf1667ffU, 0xbd3e4fa8b8c52590U, 0x38dcd49d3b76b086U, 0x3f350509b9decb1bU,
  0xbe454fd9389721c0U, 0x3b2a0150379eeb1eU, 0xb9c4a107be94ca2cU, 0xb66bb9b7ba64cb65U,
  0xb951ab87b7da2fddU, 0x3f98797a387014caU, 0xbf740526375322a5U, 0xbf1bf1753d943534U,
  0x3d3a45adbc558cdcU, 0xb973dc3d380d58a7U, 0x39433bbf3980c9dcU, 0xbf223afbb886814aU,
  0xbe6d6df23944547bU, 0xbb775fbeb9e662b4U, 0xba681776ba203720U, 0xbb0e8416bab1ec86U,
  0x382126a0bfc94767U, 0xb7c9b0acbb307281U, 0x3f80dcdabf8ce58bU, 0x3da515ebbef6e984U,
  0x385a6d00bbaff23aU, 0xb3da34793895bf8fU, 0x36dd67e93bda0177U, 0xb7606f253b2a4de3U,
  0xbf8a6f7138d9ea0aU, 0xbb1ac69c3d3b151dU, 0xb953426439eb2c1cU, 0x3e137c7339dad796U,
  0x3ea75cd9bd7f438bU, 0xb7eccad1b8114eafU, 0x3a3453ecbc5e439bU, 0x3b179ddbb9d74fdbU,
  0x3bb0e6da3f01946dU, 0xbbfc196bb996ebe2U, 0x3e435a2bbd6cab06U, 0x36b898be3b037580U,
  0xbead9d13bc86177dU, 0xba600e9e36a5c4ddU, 0xb72e5becb9dbddc3U, 0x3a6601a9bf0662cfU,
  0x3896a7a9b86ab441U, 0xb82165123c97b3a9U, 0xbd60246abbc88c09U, 0xbd24d1ab3ac46e51U,
  0xb7454d943a95a591U, 0x3cedca5cbacfcad1U, 0x39dc0df4b9fd7faeU, 0xbf7e904a37846c83U,
  0xbd79e425bf54a252U, 0xb4b44c793d67f770U, 0xb8fdc7863bd83a04U, 0x37a8d37c3930f7aeU,
  0xbecacba23730c95dU, 0x3a9973edbf1191f7U, 0xbb13b37139c38501U, 0xb790c56fbf815811U,
  0xb92d2439395d0849U, 0x399210893867f32bU, 0xb73990f6b706c68fU, 0xb5ea3e213d4ab0f9U,
  0xb9b3fa12bcbdbffbU, 0xbd8023f93843c8ccU, 0x39550b26bb0c088cU, 0x3f88f44039b360ecU,
  0xbdd18f23b853baecU, 0xbd67498bb8e22c85U, 0xb6d914ce3e7c5ff3U, 0xb869f7a7ba4df2b5U,
  0x390a4803b9dd5695U, 0x3f6ae4f4380f83d1U, 0x3fa248c6b8f7a609U, 0xbdd7c87a3f158de9U,
  0x3eb98c1bbd43bfa0U, 0x396028983a1f13ddU, 0x3b49069b3d65b442U, 0xbf226038ba0d74beU,
  0xbef28fe83a36cde8U, 0x39d64e86399a6226U, 0xb9b44653399adca3U, 0x3a4fce5f3a57f7eaU,
  0x39a050b2be191643U, 0x365df6aebc84470cU, 0x401455973f4a62b0U, 0x3e91b1b43e730f9dU,
  0xb9da30e93d1825c7U, 0xb6a80b01395d3822U, 0x35fa981c3c94ab35U, 0xb84619ab3c79db72U,
  0x3d46b0773a120aa0U, 0xbbe0b9393c32f554U, 0xb85c45a23a47f181U, 0x3ece5a8bb9a77572U,
  0x3e8f53193f44c369U, 0xba107b9538ab0fb7U, 0x3b5194133cb4ba6aU, 0xb934e6433ad1a705U,
  0x3b2c6d2c3ec8fe3dU, 0xbc1cf8653b80940bU, 0xbd4a78cebe07b3d1U, 0xb82fb0f6bbf15d50U,
  0x3f1978853bdc8949U, 0x3c0264e2b90b438cU, 0x39d900adbd654c08U, 0x3a9d55b83f438794U,
  0x38b709fabb3cc91bU, 0x38f7a4d93da55568U, 0x3e70240f3c28607bU, 0xbee102623c39f11fU,
  0xb6230d4eb996fb63U, 0x3e6c937dbbc12a51U, 0xba186f093ba48830U, 0x3f398b903bb2f6d5U,
  0xbcb6b1c63e284ce6U, 0xb85d9c7a3e915a93U, 0xba0ace18bb6967c0U, 0x393090093c1a1980U,
  0x3d8ae02236cd2403U, 0xbbc52c24bf0d404eU, 0x3ac89d94391983d5U, 0x3b0f22dfbda15475U,
  0x383e881f39ca1729U, 0x3b8ddfbc3aaabbdfU, 0xb73de588370efedbU, 0xb77113763dfbe6a2U,
  0x3aac5d62bea569aeU, 0xba7c28c339452445U, 0x3a830d813b63e816U, 0xbf8a056439ac58bbU,
  0x3e472d4eb7928009U, 0xbce47f9fb6fda7d0U, 0xba684fedbda7fc05U, 0xb7b126dbb96831f1U,
  0x38d3705eba2e190dU, 0xbfba8be5b8d2c723U, 0x3ffb1005b98c53b4U, 0xbde84415beb3720fU,
  0xbc65ae4b3e4052feU, 0xb85d694aba92467fU, 0x391a5b3b3caa27b9U, 0xbedd97be3a0febd7U,
  0xbf3741bd3a840d2bU, 0xbc807867b9d44ec7U, 0x3a43ee7f398d6684U, 0xba80d257b8faf7f6U,
  0x394a4d293fcd52eaU, 0xb75d0100be9bcc71U, 0xbf9ade223fb74581U, 0x3f4ed30e3f2de1b6U,
  0x39ab221fbb84ce23U, 0x37a2ff16b9e9fb07U, 0xb87898b13bc58dc4U, 0x390271c23ce50447U,
  0xbb748de8384740b5U, 0x3ac198b0bd1dab89U, 0xba07cd07ba4486a8U, 0x3cc1d81a39f91b4aU,
  0xbefabce3be0f4256U, 0xb91e821ab99bda9eU, 0x3a1f86903caf3e00U, 0x3ae809b03a525b02U,
  0x3c0009bcbf83d110U, 0xbca8762e3b55510bU, 0xbf77d578baa13aecU, 0xb6b8957fbcd0853dU,
  0x3c23583f3e35c586U, 0xba5e6bfe38b850c2U, 0x38741ce83a5c3394U, 0xbb32b1aa3f0c78bbU,
  0x392c190b3ba3d0a0U, 0xb98124ce3e096ed1U, 0x3e6794593b51fbe1U, 0xbec661083bf7e48eU,
  0xb79bea9fbb69482cU, 0x3b24526c399697e9U, 0xba8b3f4ebabd4335U, 0x3fe2fd55bb58dc08U,
  0xbe822d83bfc779e5U, 0xb8b60e3fbd002597U, 0x38a74c75bd389bfeU, 0xba184354bad0ee77U,
  0x3eeb48e1b68e5792U, 0x388caaf1bf0153aeU, 0x3ae09f873ab234d9U, 0xb9a9b2c6bf7501b9U,
  0x37f6f436b968a07bU, 0x3b31b2c9b995dbadU, 0x3755673ab75245a1U, 0x388c69b8bf0ab9e9U,
  0xba785a853da9a430U, 0xbbd43dafb81e5775U, 0x35cc5cc8bb5a7d0aU, 0x40129437baaa017bU,
  0x3e498933385e7670U, 0x3d8ed55ab7b11506U, 0x3951cc6d3ce34328U, 0xb87eac07b9a7f310U,
  0xb8b0f7c739e4af1dU, 0x40360889384047e0U, 0x3b3a02f939f91601U, 0xbf235224bfd042b2U,
  0xbf3e86a7bbaa1205U, 0x380d5598394a401dU, 0xb9de6dd1bcbe003fU, 0xbeab65b939298c9dU,
  0xbfb04e003b145964U, 0xbcbeaff4ba924764U, 0x39cb5d80b8e9cceaU, 0xbb9b2d91b99eafa3U,
  0xb98048133f8a6feaU, 0x371d9a003eb5fabaU, 0x3fbbda863ec98c03U, 0x3f1b50833ee49777U,
  0x3a05c45abbf55a3aU, 0x3829268e395552d2U, 0x388144733c23c302U, 0xb778cc573b1677a5U,
  0x3df407f239c729b1U, 0xbc0cd30bbd926a49U, 0xb99645acb8a10573U, 0x3eae6cb937cdcafbU,
  0x3f3d9987beac4d18U, 0xb98311b63901c3b8U, 0x3a3532a73d2fdd22U, 0x3b9d69f83acdd1c8U,
  0xbcf466143d3eb28cU, 0xbc068a673b0d07baU, 0xbba92f38bbb55ddaU, 0xb76dfff33c50f555U,
  0x3e6896e13d892d1dU, 0xba9988cf37c9b326U, 0x395199e93c634341U, 0x3bfac0b53f3b68d6U,
  0xb94032a9bb72c286U, 0xb8c7700c3e3eb4bfU, 0x3ea3ad47bbdef6b6U, 0xbdecc3ad3b896781U,
  0xb7ac28fcbab70d16U, 0x3f8d269fbb8fc3a9U, 0xbb140409ba9b78e9U, 0x3f7255cf3a8e3370U,
  0xbd693758bf9d1006U, 0xb7923be23eae37e0U, 0x39bb26883f01d26dU, 0xb7ea0d42bb054e92U,
  0x3eb827ef386f65c0U, 0xbb98df5dbeff459bU, 0xbb8088213a1685eaU, 0x3af60568bd67daeeU,
  0x399a9f5f3a33175dU, 0x3b0c97063a4c63aaU, 0xb7969b15b7341e21U, 0xb95013263cd7df6aU,
  0x401e60cc402f11f3U, 0xbf992d58bf710657U, 0xbec8b0e9bf9b273bU, 0x3ffd2ddabf99fe3cU,
  0x3e050b6ebf839a61U, 0x4010b862be69ef58U, 0xbec76a61be93947bU, 0x400ce7c4bfb97800U,
  0xbf055957bf0c5360U, 0xbdaed273bf347d8aU, 0xbf315890bf11d5caU, 0xbfbae4343bd57398U,
  0xbf9f29cd4003af04U, 0xbf54a2eebc32c82dU, 0xbe282e184023abd4U, 0x3ecf1cc9bebc7df7U,
  0xbcbb3999bfa52402U, 0xbfa20dbe3fae776eU, 0xbf0b34803fe1c661U, 0xbee55898bf356241U,
  0x401b5c10bca35766U, 0xbf2ce804bec7233eU, 0xbf153d3ebeee3674U, 0xbde1ca38be8aa5fdU,
  0x403300833fd526c5U, 0x3deaa2c5bf8fae6fU, 0xbe3da693bf978674U, 0xbfb33a5dbf73a4abU,
  0xbf435ef1ba9b0c67U, 0xbf43f574be8f0705U, 0xbe91fe863f8146c8U, 0xbf5454f23e214162U,
  0x3cf71d2b3d425e2dU, 0xbbd149b8bd563b1dU, 0xbd98e0bfbd8afd7cU, 0x3d66bda9bda125a0U,
  0xbe1854debdefe4c3U, 0x3c82b43abd143a29U, 0xbd592554bda9d78cU, 0x3d517702bd65b754U,
  0xbd5346cbbe063d46U, 0xbdf7b544bddf37efU, 0x3a1d3642be05baa6U, 0xbab58d71bd22ece5U,
  0xbdd77b973d3c15d4U, 0xbdb902d8bc15b874U, 0xbd7c9fbe3c22c2a5U, 0xbcac4cdbbd4e4ec1U,
  0xbdae43a1bd0e2017U, 0xbdb7b7f5bc0d6e1cU, 0xbd25f2b03dbafa84U, 0xbdad6a33bd8e1570U,
  0x3dac92d1bd4f693cU, 0xbd8aad4ebdf343dbU, 0xbd32b4d9bd4cc0d1U, 0xbd2ae338bdf6a439U,
  0x3c542de53d154e29U, 0xbde767acbd4162caU, 0xbe076758be0df8dfU, 0x3c3c4ce7bd7aeb85U,
  0xbdc51307bdc9dacbU, 0xbdc537d7bd8aa19eU, 0xbd2c0dc33cd8b302U, 0xbdae114abdd0a9c1U,
  0x3d878a853cf8f31cU, 0xbc0cbdb7bd1a2b20U, 0xbbda4420bc693245U, 0x3db1dcd5bdccec4bU,
  0xbe0b9a79be00f337U, 0x3d510200bd37c6a7U, 0xbd694ab3bd5af08cU, 0x3d1cc777bd8f3ca8U,
  0x3a431563bdcad4deU, 0xbe23f8d6bce05058U, 0xb8635d0bbe044491U, 0x3643d6f6bdeefe62U,
  0xbdbde5b93db8d54fU, 0xbcf1ec0cbd0834b5U, 0xbd89524b3d8f6c44U, 0x3d8b6fdbbd9d3ae1U,
  0xbd354359bbfb2eacU, 0xbd279f93bbd4a526U, 0xbd850a223c5c3fdaU, 0xbdc7ea41b9452e52U,
  0x3d921219bd01b0ddU, 0xbde3f95dbe0490a0U, 0xbdf1ef00bd16b63bU, 0xbd65409dbda81885U,
  0x3cc5bc343bc64f4eU, 0xbd810b2cbd221dc3U, 0xbda52ac5bd1c5f03U, 0xbc23d8f2bc9dcd1aU,
  0xbd951779bd88ed4aU, 0xbd402feabda473fdU, 0xbc57794b3c51817fU, 0xbcd75647bd777a25U,
  0x3cae34373dbbfa53U, 0x3d058862bcc60f0aU, 0xbd430a48be0ce3ffU, 0x3d57f7fabd6f3ed6U,
  0xbd78ec9bbda414a3U, 0x3cff2941bd1163afU, 0xbd826013bdde0acfU, 0x3b339b8cbda12201U,
  0xbd160eb4bd829aceU, 0xbdac9039bd0d1e8aU, 0x3a70db5cbd39df6fU, 0xb828d332be281dacU,
  0xbdd3934b3dbb6747U, 0xbd62c847bcdd2101U, 0xbe2686143da0517bU, 0x3d5606e4bd89bae9U,
  0xbd91b5e1bb439c19U, 0xbd9270c13a98dc37U, 0xbd469df53d947291U, 0xbdc72356bd2f13b1U,
